{
  "version": "1.0",
  "truncation": null,
  "padding": null,
  "added_tokens": [
    {
      "id": 0,
      "content": "<unk>",
      "single_word": false,
      "lstrip": false,
      "rstrip": false,
      "normalized": false,
      "special": true
    },
    {
      "id": 1,
      "content": "<s>",
      "single_word": false,
      "lstrip": false,
      "rstrip": false,
      "normalized": false,
      "special": true
    },
    {
      "id": 2,
      "content": "</s>",
      "single_word": false,
      "lstrip": false,
      "rstrip": false,
      "normalized": false,
      "special": true
    },
    {
      "id": 3,
      "content": "<pad>",
      "single_word": false,
      "lstrip": false,
      "rstrip": false,
      "normalized": false,
      "special": true
    },
    {
      "id": 4,
      "content": "<mask>",
      "single_word": false,
      "lstrip": false,
      "rstrip": false,
      "normalized": false,
      "special": true
    },
    {
      "id": 5,
      "content": "<special_0>",
      "single_word": false,
      "lstrip": false,
      "rstrip": false,
      "normalized": false,
      "special": true
    },
    {
      "id": 6,
      "content": "<special_1>",
      "single_word": false,
      "lstrip": false,
      "rstrip": false,
      "normalized": false,
      "special": true
    },
    {
      "id": 7,
      "content": "<special_2>",
      "single_word": false,
      "lstrip": false,
      "rstrip": false,
      "normalized": false,
      "special": true
    },
    {
      "id": 8,
      "content": "<special_3>",
      "single_word": false,
      "lstrip": false,
      "rstrip": false,
      "normalized": false,
      "special": true
    },
    {
      "id": 9,
      "content": "<special_4>",
      "single_word": false,
      "lstrip": false,
      "rstrip": false,
      "normalized": false,
      "special": true
    },
    {
      "id": 10,
      "content": "<special_5>",
      "single_word": false,
      "lstrip": false,
      "rstrip": false,
      "normalized": false,
      "special": true
    },
    {
      "id": 11,
      "content": "<special_6>",
      "single_word": false,
      "lstrip": false,
      "rstrip": false,
      "normalized": false,
      "special": true
    },
    {
      "id": 12,
      "content": "<special_7>",
      "single_word": false,
      "lstrip": false,
      "rstrip": false,
      "normalized": false,
      "special": true
    },
    {
      "id": 13,
      "content": "<special_8>",
      "single_word": false,
      "lstrip": false,
      "rstrip": false,
      "normalized": false,
      "special": true
    },
    {
      "id": 14,
      "content": "<special_9>",
      "single_word": false,
      "lstrip": false,
      "rstrip": false,
      "normalized": false,
      "special": true
    },
    {
      "id": 15,
      "content": "<special_10>",
      "single_word": false,
      "lstrip": false,
      "rstrip": false,
      "normalized": false,
      "special": true
    }
  ],
  "normalizer": {
    "type": "Sequence",
    "normalizers": [
      {
        "type": "Prepend",
        "prepend": " "
      },
      {
        "type": "NFC"
      },
      {
        "type": "Replace",
        "pattern": {
          "Regex": "\n"
        },
        "content": "\n "
      },
      {
        "type": "Replace",
        "pattern": {
          "Regex": " *\n"
        },
        "content": "\n"
      }
    ]
  },
  "pre_tokenizer": {
    "type": "Sequence",
    "pretokenizers": [
      {
        "type": "Split",
        "pattern": {
          "Regex": "[^\\r\\n\\p{L}\\p{N}]?[\\p{Lu}\\p{Lt}\\p{Lm}\\p{Lo}\\p{M}]*[\\p{Ll}\\p{Lm}\\p{Lo}\\p{M}]+|[^\\r\\n\\p{L}\\p{N}]?[\\p{Lu}\\p{Lt}\\p{Lm}\\p{Lo}\\p{M}]+[\\p{Ll}\\p{Lm}\\p{Lo}\\p{M}]*| ?\\p{N}| ?[^\\s\\p{L}\\p{N}]+[\\r\\n/]*|\\s*[\\r\\n]+|\\s+(?!\\S)|\\s+"
        },
        "behavior": "Isolated",
        "invert": false
      },
      {
        "type": "ByteLevel",
        "add_prefix_space": false,
        "trim_offsets": true,
        "use_regex": false
      }
    ]
  },
  "post_processor": {
    "type": "TemplateProcessing",
    "single": [
      {
        "SpecialToken": {
          "id": "<s>",
          "type_id": 0
        }
      },
      {
        "Sequence": {
          "id": "A",
          "type_id": 0
        }
      }
    ],
    "pair": [
      {
        "SpecialToken": {
          "id": "<s>",
          "type_id": 0
        }
      },
      {
        "Sequence": {
          "id": "A",
          "type_id": 0
        }
      },
      {
        "SpecialToken": {
          "id": "<s>",
          "type_id": 0
        }
      },
      {
        "Sequence": {
          "id": "B",
          "type_id": 0
        }
      }
    ],
    "special_tokens": {
      "<s>": {
        "id": "<s>",
        "ids": [
          1
        ],
        "tokens": [
          "<s>"
        ]
      }
    }
  },
  "decoder": {
    "type": "Sequence",
    "decoders": [
      {
        "type": "ByteLevel",
        "add_prefix_space": true,
        "trim_offsets": true,
        "use_regex": true
      },
      {
        "type": "Strip",
        "content": " ",
        "start": 1,
        "stop": 0
      },
      {
        "type": "Replace",
        "pattern": {
          "String": "\n "
        },
        "content": "\n"
      }
    ]
  },
  "model": {
    "type": "BPE",
    "dropout": null,
    "unk_token": "<unk>",
    "continuing_subword_prefix": null,
    "end_of_word_suffix": null,
    "fuse_unk": false,
    "byte_fallback": false,
    "ignore_merges": true,
    "vocab": {
      "<unk>": 0,
      "<s>": 1,
      "</s>": 2,
      "<pad>": 3,
      "<mask>": 4,
      "<special_0>": 5,
      "<special_1>": 6,
      "<special_2>": 7,
      "<special_3>": 8,
      "<special_4>": 9,
      "<special_5>": 10,
      "<special_6>": 11,
      "<special_7>": 12,
      "<special_8>": 13,
      "<special_9>": 14,
      "<special_10>": 15,
      "!": 16,
      "\"": 17,
      "#": 18,
      "$": 19,
      "%": 20,
      "&": 21,
      "'": 22,
      "(": 23,
      ")": 24,
      "*": 25,
      "+": 26,
      ",": 27,
      "-": 28,
      ".": 29,
      "/": 30,
      "0": 31,
      "1": 32,
      "2": 33,
      "3": 34,
      "4": 35,
      "5": 36,
      "6": 37,
      "7": 38,
      "8": 39,
      "9": 40,
      ":": 41,
      ";": 42,
      "<": 43,
      "=": 44,
      ">": 45,
      "?": 46,
      "@": 47,
      "A": 48,
      "B": 49,
      "C": 50,
      "D": 51,
      "E": 52,
      "F": 53,
      "G": 54,
      "H": 55,
      "I": 56,
      "J": 57,
      "K": 58,
      "L": 59,
      "M": 60,
      "N": 61,
      "O": 62,
      "P": 63,
      "Q": 64,
      "R": 65,
      "S": 66,
      "T": 67,
      "U": 68,
      "V": 69,
      "W": 70,
      "X": 71,
      "Y": 72,
      "Z": 73,
      "[": 74,
      "\\": 75,
      "]": 76,
      "^": 77,
      "_": 78,
      "`": 79,
      "a": 80,
      "b": 81,
      "c": 82,
      "d": 83,
      "e": 84,
      "f": 85,
      "g": 86,
      "h": 87,
      "i": 88,
      "j": 89,
      "k": 90,
      "l": 91,
      "m": 92,
      "n": 93,
      "o": 94,
      "p": 95,
      "q": 96,
      "r": 97,
      "s": 98,
      "t": 99,
      "u": 100,
      "v": 101,
      "w": 102,
      "x": 103,
      "y": 104,
      "z": 105,
      "{": 106,
      "|": 107,
      "}": 108,
      "~": 109,
      "¡": 110,
      "¢": 111,
      "£": 112,
      "¤": 113,
      "¥": 114,
      "¦": 115,
      "§": 116,
      "¨": 117,
      "©": 118,
      "ª": 119,
      "«": 120,
      "¬": 121,
      "®": 122,
      "¯": 123,
      "°": 124,
      "±": 125,
      "²": 126,
      "³": 127,
      "´": 128,
      "µ": 129,
      "¶": 130,
      "·": 131,
      "¸": 132,
      "¹": 133,
      "º": 134,
      "»": 135,
      "¼": 136,
      "½": 137,
      "¾": 138,
      "¿": 139,
      "À": 140,
      "Á": 141,
      "Â": 142,
      "Ã": 143,
      "Ä": 144,
      "Å": 145,
      "Æ": 146,
      "Ç": 147,
      "È": 148,
      "É": 149,
      "Ê": 150,
      "Ë": 151,
      "Ì": 152,
      "Í": 153,
      "Î": 154,
      "Ï": 155,
      "Ð": 156,
      "Ñ": 157,
      "Ò": 158,
      "Ó": 159,
      "Ô": 160,
      "Õ": 161,
      "Ö": 162,
      "×": 163,
      "Ø": 164,
      "Ù": 165,
      "Ú": 166,
      "Û": 167,
      "Ü": 168,
      "Ý": 169,
      "Þ": 170,
      "ß": 171,
      "à": 172,
      "á": 173,
      "â": 174,
      "ã": 175,
      "ä": 176,
      "å": 177,
      "æ": 178,
      "ç": 179,
      "è": 180,
      "é": 181,
      "ê": 182,
      "ë": 183,
      "ì": 184,
      "í": 185,
      "î": 186,
      "ï": 187,
      "ð": 188,
      "ñ": 189,
      "ò": 190,
      "ó": 191,
      "ô": 192,
      "õ": 193,
      "ö": 194,
      "÷": 195,
      "ø": 196,
      "ù": 197,
      "ú": 198,
      "û": 199,
      "ü": 200,
      "ý": 201,
      "þ": 202,
      "ÿ": 203,
      "Ā": 204,
      "ā": 205,
      "Ă": 206,
      "ă": 207,
      "Ą": 208,
      "ą": 209,
      "Ć": 210,
      "ć": 211,
      "Ĉ": 212,
      "ĉ": 213,
      "Ċ": 214,
      "ċ": 215,
      "Č": 216,
      "č": 217,
      "Ď": 218,
      "ď": 219,
      "Đ": 220,
      "đ": 221,
      "Ē": 222,
      "ē": 223,
      "Ĕ": 224,
      "ĕ": 225,
      "Ė": 226,
      "ė": 227,
      "Ę": 228,
      "ę": 229,
      "Ě": 230,
      "ě": 231,
      "Ĝ": 232,
      "ĝ": 233,
      "Ğ": 234,
      "ğ": 235,
      "Ġ": 236,
      "ġ": 237,
      "Ģ": 238,
      "ģ": 239,
      "Ĥ": 240,
      "ĥ": 241,
      "Ħ": 242,
      "ħ": 243,
      "Ĩ": 244,
      "ĩ": 245,
      "Ī": 246,
      "ī": 247,
      "Ĭ": 248,
      "ĭ": 249,
      "Į": 250,
      "į": 251,
      "İ": 252,
      "ı": 253,
      "Ĳ": 254,
      "ĳ": 255,
      "Ĵ": 256,
      "ĵ": 257,
      "Ķ": 258,
      "ķ": 259,
      "ĸ": 260,
      "Ĺ": 261,
      "ĺ": 262,
      "Ļ": 263,
      "ļ": 264,
      "Ľ": 265,
      "ľ": 266,
      "Ŀ": 267,
      "ŀ": 268,
      "Ł": 269,
      "ł": 270,
      "Ń": 271,
      "Ġf": 272,
      "an": 273,
      "Ġe": 274,
      "Ġo": 275,
      "Ġd": 276,
      "ar": 277,
      "or": 278,
      "le": 279,
      "st": 280,
      "Ġt": 281,
      "Ġm": 282,
      "Ġi": 283,
      "ĠĠ": 284,
      "ne": 285,
      "Ġa": 286,
      "se": 287,
      "Ġh": 288,
      "Ġv": 289,
      "il": 290,
      "ng": 291,
      "Ġde": 292,
      "Ġb": 293,
      "Ã¸": 294,
      "li": 295,
      "Ġk": 296,
      "Ġp": 297,
      "Ġog": 298,
      "ke": 299,
      "tt": 300,
      "om": 301,
      "ed": 302,
      "ge": 303,
      "ri": 304,
      "sk": 305,
      "ve": 306,
      "er": 307,
      "ĠÃ": 308,
      "el": 309,
      "Ġfor": 310,
      "nd": 311,
      "ra": 312,
      "ti": 313,
      "Ġtil": 314,
      "Ġg": 315,
      "si": 316,
      "Ġer": 317,
      "ĠĠĠĠ": 318,
      "on": 319,
      "al": 320,
      ".Ċ": 321,
      "Ġu": 322,
      "Ġn": 323,
      "ing": 324,
      "nt": 325,
      "som": 326,
      "je": 327,
      "ĠpÃ": 328,
      "ĠpÃ¥": 329,
      "Ġav": 330,
      "ĠS": 331,
      "ĠÃ¥": 332,
      "and": 333,
      "Ġsom": 334,
      "ĠD": 335,
      "Ã¦": 336,
      "Ġen": 337,
      "Ġr": 338,
      "la": 339,
      "Ġmed": 340,
      "Ġst": 341,
      "me": 342,
      "Ġdet": 343,
      "Ã¸r": 344,
      "sa": 345,
      "pp": 346,
      "nn": 347,
      "ur": 348,
      "ler": 349,
      "at": 350,
      "Ġat": 351,
      "kt": 352,
      "ver": 353,
      "Ġse": 354,
      "es": 355,
      "id": 356,
      "kke": 357,
      "he": 358,
      "ro": 359,
      "Ġsk": 360,
      "Ġl": 361,
      "ste": 362,
      "Ã°": 363,
      "ĠH": 364,
      "sp": 365,
      "Ġvi": 366,
      "ru": 367,
      "Ġhar": 368,
      "nne": 369,
      "Ġ1": 370,
      "lig": 371,
      "vi": 372,
      "ol": 373,
      "tte": 374,
      "sj": 375,
      "ning": 376,
      "ĠM": 377,
      "Ġme": 378,
      "ĠDe": 379,
      "sÃ": 380,
      "ĠF": 381,
      "ta": 382,
      "Ġ2": 383,
      "¥r": 384,
      "Ã¦r": 385,
      "Ġbe": 386,
      "Ġom": 387,
      "ĠT": 388,
      "Ã¥r": 389,
      "Ġut": 390,
      "..": 391,
      "ĠA": 392,
      "ring": 393,
      "na": 394,
      "Ġsi": 395,
      "ĠĠĠĠĠĠĠĠ": 396,
      "Ġre": 397,
      "Ġ-": 398,
      "ĠB": 399,
      "ske": 400,
      "ser": 401,
      "ĠE": 402,
      "kk": 403,
      "Ġkan": 404,
      "Ġsa": 405,
      "od": 406,
      "ig": 407,
      "ĠN": 408,
      "ĠV": 409,
      "sÃ¥": 410,
      "nde": 411,
      "it": 412,
      "be": 413,
      "ĠI": 414,
      "Ġdu": 415,
      "ag": 416,
      "ĠK": 417,
      "ter": 418,
      "um": 419,
      "Ġvar": 420,
      "ir": 421,
      "Ġal": 422,
      "ul": 423,
      "rÃ": 424,
      "ere": 425,
      "for": 426,
      "--": 427,
      "ĠP": 428,
      "ner": 429,
      "âĢ": 430,
      "ad": 431,
      "Ġden": 432,
      "Ġle": 433,
      "Ġ(": 434,
      "ot": 435,
      "ĠL": 436,
      "Ġc": 437,
      "Ã¤": 438,
      "ns": 439,
      "am": 440,
      "ger": 441,
      "ni": 442,
      "Ġsp": 443,
      "pe": 444,
      "Ġopp": 445,
      "ok": 446,
      "der": 447,
      "Ġan": 448,
      "Ġfra": 449,
      "are": 450,
      "Ġin": 451,
      "Ġkom": 452,
      "tter": 453,
      "Ġei": 454,
      "Ġsam": 455,
      "Ġli": 456,
      "Ġel": 457,
      "Ġikke": 458,
      "Ã¶": 459,
      "Ġj": 460,
      "ĊĊ": 461,
      "ĠO": 462,
      "ling": 463,
      "Ġ|": 464,
      "ss": 465,
      "ĠR": 466,
      "Ġet": 467,
      "sjon": 468,
      "ene": 469,
      "eg": 470,
      "sen": 471,
      "ĠG": 472,
      "Ġhe": 473,
      "un": 474,
      "ma": 475,
      "ĠDet": 476,
      "kti": 477,
      "ut": 478,
      "rÃ¥": 479,
      "yr": 480,
      "va": 481,
      "Ġdi": 482,
      "ch": 483,
      "ud": 484,
      "ĠmÃ": 485,
      "Ġvil": 486,
      "ord": 487,
      "Ġder": 488,
      "Ġand": 489,
      "ft": 490,
      "ĠâĢ": 491,
      "Ġeller": 492,
      "gi": 493,
      "ker": 494,
      ".ĊĊ": 495,
      "Ġpro": 496,
      "em": 497,
      "ĠJ": 498,
      "Ġne": 499,
      "leg": 500,
      "mer": 501,
      "nder": 502,
      "ort": 503,
      "gen": 504,
      "ĠmÃ¥": 505,
      "Ġfi": 506,
      "as": 507,
      "ang": 508,
      "ĠsÃ¥": 509,
      "art": 510,
      "Ġthe": 511,
      "ĠC": 512,
      "Ġinn": 513,
      "Ġtr": 514,
      "Ġmi": 515,
      "sy": 516,
      "lo": 517,
      "ap": 518,
      "Ġbli": 519,
      "Ġman": 520,
      "....": 521,
      "Ġto": 522,
      "Ġover": 523,
      "Ġskal": 524,
      "Ġver": 525,
      "Ã¦re": 526,
      "Ã¡": 527,
      "Ġje": 528,
      "sm": 529,
      "Ġgj": 530,
      "arbe": 531,
      "Ġte": 532,
      "Ġha": 533,
      "so": 534,
      "us": 535,
      "nter": 536,
      "yg": 537,
      "ie": 538,
      "het": 539,
      "Ġla": 540,
      "len": 541,
      "ff": 542,
      "Ġny": 543,
      "Ġve": 544,
      "tion": 545,
      "ka": 546,
      "Ġmen": 547,
      "nte": 548,
      "Ġ3": 549,
      "Ġno": 550,
      "nen": 551,
      "Ġjeg": 552,
      "old": 553,
      "Ġved": 554,
      "Ã¸y": 555,
      "get": 556,
      "Ġta": 557,
      "nge": 558,
      "is": 559,
      "ĠfÃ¸r": 560,
      "ĠU": 561,
      "Ġkon": 562,
      "sv": 563,
      "Ġw": 564,
      "Ġbru": 565,
      "Ġein": 566,
      "lan": 567,
      "let": 568,
      "di": 569,
      "ĠogsÃ¥": 570,
      "----": 571,
      "Ġhan": 572,
      "ell": 573,
      "Ġseg": 574,
      "ĠÃ¥r": 575,
      "Ã¶r": 576,
      "eld": 577,
      "Ġhv": 578,
      "lu": 579,
      "ce": 580,
      "arbeid": 581,
      "Ġaf": 582,
      "Ġgod": 583,
      "ster": 584,
      "else": 585,
      "ĠÃ¸": 586,
      "ĠâĢĵ": 587,
      "men": 588,
      "Ġda": 589,
      "Ã³": 590,
      "kte": 591,
      "sjo": 592,
      "ĠSt": 593,
      "vis": 594,
      "ande": 595,
      "fi": 596,
      "lige": 597,
      "Ġfr": 598,
      "jÃ¸": 599,
      "ĠVi": 600,
      "mu": 601,
      "ber": 602,
      "ane": 603,
      "ly": 604,
      "og": 605,
      "net": 606,
      ":Ċ": 607,
      "jer": 608,
      "Ġof": 609,
      "elt": 610,
      "und": 611,
      "ĠÃŃ": 612,
      "ate": 613,
      "Ã¸l": 614,
      "ts": 615,
      "Ġgje": 616,
      "ĠfÃ": 617,
      "Ġsy": 618,
      "Ġtid": 619,
      "ei": 620,
      "ĠvÃ¦re": 621,
      "ak": 622,
      "Ġetter": 623,
      "ĠÂ": 624,
      "Ġunder": 625,
      "mi": 626,
      "Ġku": 627,
      "ore": 628,
      "Ġ\"": 629,
      "Ġ4": 630,
      "sti": 631,
      "sÃ¸": 632,
      "ov": 633,
      "Ġoch": 634,
      "per": 635,
      "ob": 636,
      "ĠfÃ¥": 637,
      "sli": 638,
      "Ã¸re": 639,
      "lt": 640,
      "no": 641,
      "gt": 642,
      "Ġsel": 643,
      "ede": 644,
      "Ġdette": 645,
      "tid": 646,
      "alt": 647,
      "Ġ5": 648,
      "rÃ¸": 649,
      "Ġnoe": 650,
      "Ġble": 651,
      "Ġpo": 652,
      "ĠFor": 653,
      "kker": 654,
      "sta": 655,
      "ĠÃ¡": 656,
      "Ġor": 657,
      "sse": 658,
      "Ġtre": 659,
      "Ġalle": 660,
      "Ġper": 661,
      "Ġdei": 662,
      "du": 663,
      "ck": 664,
      "Ġatt": 665,
      "Ġmu": 666,
      "hold": 667,
      "da": 668,
      "Ġandr": 669,
      "av": 670,
      "Ġandre": 671,
      "ent": 672,
      "skap": 673,
      "ket": 674,
      "set": 675,
      "Ġbar": 676,
      "ek": 677,
      "ant": 678,
      "Ġikk": 679,
      "ĠĠĠĠĠĠĠĠĠĠĠĠĠĠĠĠ": 680,
      "elle": 681,
      "ga": 682,
      "ment": 683,
      "¥d": 684,
      "Ã¥d": 685,
      "Ġmer": 686,
      "Ġblir": 687,
      "su": 688,
      "yl": 689,
      "sten": 690,
      "ska": 691,
      "lere": 692,
      "Ġso": 693,
      "mp": 694,
      "ÃŃ": 695,
      "ppe": 696,
      "ba": 697,
      ")Ċ": 698,
      "ven": 699,
      "sje": 700,
      "Ġra": 701,
      "Ġkr": 702,
      "ĠMe": 703,
      "ille": 704,
      "Ġgru": 705,
      "Ġ0": 706,
      "vel": 707,
      "ĠfrÃ¥": 708,
      "ken": 709,
      "Ġfa": 710,
      "........": 711,
      "land": 712,
      "str": 713,
      "Ġdag": 714,
      "vik": 715,
      "Ġsj": 716,
      "ale": 717,
      "Ġek": 718,
      "Ġpri": 719,
      "ĠfÃ¶r": 720,
      "ting": 721,
      "vet": 722,
      "var": 723,
      "all": 724,
      "ult": 725,
      "Ã¸d": 726,
      "asi": 727,
      "nnom": 728,
      "sert": 729,
      "Ġdenne": 730,
      "nner": 731,
      "ran": 732,
      "Ġy": 733,
      "ire": 734,
      "ĠNor": 735,
      "rÃ¥d": 736,
      "Ġdeg": 737,
      "legg": 738,
      "sker": 739,
      "Ġmy": 740,
      "ĠW": 741,
      "Ġgi": 742,
      "Ġarbeid": 743,
      "Ġma": 744,
      "Ġfe": 745,
      "Ġher": 746,
      "ja": 747,
      "Ġeg": 748,
      "lag": 749,
      "os": 750,
      "tta": 751,
      "ĠnÃ¥r": 752,
      "res": 753,
      "Ġsli": 754,
      "ĠÃ¤": 755,
      "jel": 756,
      "ill": 757,
      "ost": 758,
      "met": 759,
      "yd": 760,
      "sh": 761,
      "Ġmot": 762,
      "Ġikkje": 763,
      "Ġ6": 764,
      "Ġmange": 765,
      "ki": 766,
      "Ġge": 767,
      "fa": 768,
      "Â»": 769,
      "ist": 770,
      "lem": 771,
      "fte": 772,
      "Ġdel": 773,
      "add": 774,
      "nger": 775,
      "ndr": 776,
      "Ġmin": 777,
      "pet": 778,
      "ĠnÃ": 779,
      "op": 780,
      "Ġgjennom": 781,
      "ĠÂ«": 782,
      "ĠvÃ¥r": 783,
      "ktig": 784,
      "gje": 785,
      "Ġkl": 786,
      "Ã¤r": 787,
      "Ġri": 788,
      "Ġar": 789,
      "ild": 790,
      "Ġ=": 791,
      "ĠlÃ¸": 792,
      "ann": 793,
      "Ã¦rt": 794,
      "ram": 795,
      "Ġbeh": 796,
      "ĠfÃ¥r": 797,
      "ry": 798,
      "adde": 799,
      "Ġfram": 800,
      "ering": 801,
      "ll": 802,
      "ende": 803,
      "ĠDette": 804,
      "Ġkommu": 805,
      "Ġeit": 806,
      "Ġspe": 807,
      "ari": 808,
      "son": 809,
      "bi": 810,
      "im": 811,
      "led": 812,
      "Ġenn": 813,
      "Ġsv": 814,
      "nes": 815,
      "ninge": 816,
      "Ġpe": 817,
      "kter": 818,
      "red": 819,
      "Ġis": 820,
      "Ġhadde": 821,
      "Ġgra": 822,
      "ald": 823,
      "est": 824,
      "ug": 825,
      "ep": 826,
      "Ġbet": 827,
      "ct": 828,
      "Ã¥de": 829,
      "Ġhvor": 830,
      "Ġkje": 831,
      "ndre": 832,
      "Ġser": 833,
      "fter": 834,
      "kr": 835,
      "ks": 836,
      "Ġsid": 837,
      "Ġselv": 838,
      "Ġsm": 839,
      "Ġnor": 840,
      "ide": 841,
      "Ġum": 842,
      "ust": 843,
      "lit": 844,
      "--------": 845,
      "Ġud": 846,
      "Ġop": 847,
      "Ġfort": 848,
      "ttet": 849,
      "!Ċ": 850,
      "¥l": 851,
      "ĠsÃ¸": 852,
      "ode": 853,
      "Ġpr": 854,
      "Ġ7": 855,
      "ningen": 856,
      "Ã¥l": 857,
      "atur": 858,
      "ninger": 859,
      "fÃ¸r": 860,
      "Ġdin": 861,
      "Ġfrem": 862,
      "Ġinter": 863,
      "ngen": 864,
      "bo": 865,
      "ert": 866,
      "ĠJeg": 867,
      "dag": 868,
      "ffe": 869,
      "ĠsÃ": 870,
      "ĠDen": 871,
      "sl": 872,
      "ellom": 873,
      "kon": 874,
      "les": 875,
      "skri": 876,
      "?Ċ": 877,
      "sent": 878,
      "stil": 879,
      "Ġnok": 880,
      "Ã°i": 881,
      "ani": 882,
      "ati": 883,
      "Ġpla": 884,
      "Ġmeg": 885,
      "ori": 886,
      "Ãº": 887,
      "Ġsin": 888,
      "ĠMen": 889,
      "Ġoss": 890,
      "Ġinne": 891,
      "Ġned": 892,
      "Ġti": 893,
      "ard": 894,
      "bru": 895,
      "ĠÃ¤r": 896,
      "Ġend": 897,
      "sjonen": 898,
      "Ġhel": 899,
      "Ġth": 900,
      "Ġ8": 901,
      "Ġsu": 902,
      "pt": 903,
      "ett": 904,
      "ĠEn": 905,
      "Ġvel": 906,
      "nar": 907,
      "ien": 908,
      "Ġalt": 909,
      "ĠnÃ¥": 910,
      "lei": 911,
      "Ġbyg": 912,
      "Ġmellom": 913,
      "val": 914,
      "ĠÃ¾": 915,
      "rÃ¥de": 916,
      "sel": 917,
      "Ġfy": 918,
      "fe": 919,
      "ny": 920,
      "num": 921,
      "org": 922,
      "sum": 923,
      "vit": 924,
      "ĠbÃ¥de": 925,
      "ĠviÃ°": 926,
      "ab": 927,
      "Ġute": 928,
      "Ġres": 929,
      "Ġnoen": 930,
      "Ġnye": 931,
      "ĠhÃ¸": 932,
      "arte": 933,
      "Ġprodu": 934,
      "ĠDu": 935,
      "sf": 936,
      ").": 937,
      "Ġind": 938,
      "Ġnett": 939,
      "Ġ9": 940,
      "opp": 941,
      "nad": 942,
      "Ġ*": 943,
      "gere": 944,
      "ade": 945,
      "Ġhver": 946,
      "ou": 947,
      "gr": 948,
      "ci": 949,
      "Ġon": 950,
      "ark": 951,
      "lse": 952,
      "Ġstor": 953,
      "one": 954,
      "stem": 955,
      "Ġgodt": 956,
      "ĠAr": 957,
      "kom": 958,
      "Ġvan": 959,
      "Ã¦ring": 960,
      "ata": 961,
      "Ġkunne": 962,
      "Ġty": 963,
      "Ġ#": 964,
      "forma": 965,
      "ĠĠĠĠĠĠĠĠĠĠĠĠ": 966,
      "ite": 967,
      "ĠThe": 968,
      "Ġtill": 969,
      "ĠSk": 970,
      "Ġbare": 971,
      "ara": 972,
      "Ġby": 973,
      "Ġplan": 974,
      "Ġvir": 975,
      "ha": 976,
      "ens": 977,
      "sjoner": 978,
      "Ġpa": 979,
      "andling": 980,
      "Ġmulig": 981,
      "Ġbed": 982,
      "ski": 983,
      "rat": 984,
      "ogi": 985,
      "gang": 986,
      "Ġlang": 987,
      "yre": 988,
      "Ġall": 989,
      "ue": 990,
      "Ġskul": 991,
      "Ġdem": 992,
      "Ġslik": 993,
      "Ġfle": 994,
      "Ġkommer": 995,
      "ĠstÃ¸r": 996,
      "kken": 997,
      "Ġsammen": 998,
      "kje": 999,
      "Ġna": 1000,
      "gj": 1001,
      "ĠgÃ¥r": 1002,
      "Ġland": 1003,
      "rie": 1004,
      "ĠRe": 1005,
      "ssi": 1006,
      "tak": 1007,
      "ĠgÃ": 1008,
      "Ġmil": 1009,
      "vt": 1010,
      "ĠHan": 1011,
      "ĠfÃ¸l": 1012,
      "ull": 1013,
      "Ġju": 1014,
      "Ġlitt": 1015,
      "ges": 1016,
      "ier": 1017,
      "amp": 1018,
      "Ġlig": 1019,
      "ĠkjÃ¸": 1020,
      "ĠOg": 1021,
      "sb": 1022,
      "pro": 1023,
      "ĠgÃ¥": 1024,
      "Ġvid": 1025,
      "Ġba": 1026,
      "ĠAl": 1027,
      "anse": 1028,
      "ordan": 1029,
      "ater": 1030,
      "asino": 1031,
      "dd": 1032,
      "Ġside": 1033,
      "Ġflere": 1034,
      "gru": 1035,
      "Ġbi": 1036,
      "lite": 1037,
      "pen": 1038,
      "Ġly": 1039,
      "ĠHer": 1040,
      "kre": 1041,
      "Ã¦l": 1042,
      "ĠÃ¸n": 1043,
      "),": 1044,
      "Ġfri": 1045,
      "Ã¸t": 1046,
      "Ġtilb": 1047,
      "Ġmod": 1048,
      "Ġpar": 1049,
      "ĠfÃ¸rste": 1050,
      "liti": 1051,
      "dom": 1052,
      "Ġsum": 1053,
      "dr": 1054,
      "sam": 1055,
      "ation": 1056,
      "Ġgrunn": 1057,
      "ĠLi": 1058,
      "Ġskri": 1059,
      "ble": 1060,
      "Ġele": 1061,
      "ali": 1062,
      "eren": 1063,
      "bli": 1064,
      "Ġsig": 1065,
      "ndig": 1066,
      "lar": 1067,
      "unn": 1068,
      "ĠDer": 1069,
      "ast": 1070,
      "ses": 1071,
      "Ġbo": 1072,
      "ĠPÃ": 1073,
      "like": 1074,
      "svar": 1075,
      "jem": 1076,
      "Ġtek": 1077,
      "Ġbl": 1078,
      "Ġjob": 1079,
      "del": 1080,
      "Ġska": 1081,
      "Ġhj": 1082,
      "hed": 1083,
      "po": 1084,
      "slo": 1085,
      "Ġviktig": 1086,
      "ĠgjÃ¸r": 1087,
      "Ġupp": 1088,
      "Ġform": 1089,
      "ĠbÃ¸r": 1090,
      "nst": 1091,
      "tur": 1092,
      "Ġreg": 1093,
      "Ġval": 1094,
      "ow": 1095,
      "Ġkra": 1096,
      "hi": 1097,
      "Ġutvik": 1098,
      "Ġkva": 1099,
      "Ġber": 1100,
      "Ġdri": 1101,
      "Ġforsk": 1102,
      "Ġenke": 1103,
      "dan": 1104,
      "lene": 1105,
      "vite": 1106,
      "ong": 1107,
      "jene": 1108,
      "ĠPÃ¥": 1109,
      "sere": 1110,
      "ont": 1111,
      "ĠÃħ": 1112,
      "Ġfol": 1113,
      "Ġrett": 1114,
      "erne": 1115,
      "ĠSp": 1116,
      "Ã°ur": 1117,
      "oner": 1118,
      "Ġkont": 1119,
      "Ġmar": 1120,
      "ĠSe": 1121,
      "................": 1122,
      "kar": 1123,
      "Ġgr": 1124,
      "dig": 1125,
      "fer": 1126,
      "Ġperson": 1127,
      "Ġtra": 1128,
      "ktet": 1129,
      "sing": 1130,
      "Ġred": 1131,
      "tr": 1132,
      "ksjon": 1133,
      "Ġ|Ċ": 1134,
      "ygg": 1135,
      "isk": 1136,
      "lÃ¸": 1137,
      "tten": 1138,
      "Ġstud": 1139,
      "ĠhÃ¸y": 1140,
      "lad": 1141,
      "ee": 1142,
      "stra": 1143,
      "Ġbruke": 1144,
      "over": 1145,
      "orde": 1146,
      "Ġleg": 1147,
      "Ġuten": 1148,
      "th": 1149,
      "Ġad": 1150,
      "Ġfyri": 1151,
      "Ġbr": 1152,
      "hete": 1153,
      "ĠMed": 1154,
      "âĢĿ": 1155,
      "ologi": 1156,
      "pr": 1157,
      "heten": 1158,
      "ĠaÃ°": 1159,
      "Ġex": 1160,
      "slu": 1161,
      "Ġmye": 1162,
      "ure": 1163,
      "Ġdig": 1164,
      "ĠBe": 1165,
      "heter": 1166,
      "Ġkun": 1167,
      "vir": 1168,
      "ange": 1169,
      "ppen": 1170,
      "oe": 1171,
      "Ġkro": 1172,
      "Ġett": 1173,
      "urd": 1174,
      "eldig": 1175,
      "ole": 1176,
      "lat": 1177,
      "gram": 1178,
      "Ġhelt": 1179,
      "bu": 1180,
      "Ġgir": 1181,
      "Ġakti": 1182,
      "Ġja": 1183,
      "ic": 1184,
      "Ġbest": 1185,
      "ilt": 1186,
      "ise": 1187,
      "Ġinforma": 1188,
      "nings": 1189,
      "Ġhand": 1190,
      "Ġstore": 1191,
      "Ġdisse": 1192,
      "ER": 1193,
      "ĠHe": 1194,
      "ĠTil": 1195,
      "Ġski": 1196,
      "qu": 1197,
      "sn": 1198,
      ",Ċ": 1199,
      "Ġkor": 1200,
      "sid": 1201,
      "oy": 1202,
      "vÃ": 1203,
      "Ġhjel": 1204,
      "fti": 1205,
      "Ġregi": 1206,
      "Ġbeg": 1207,
      "ringer": 1208,
      "ĠlÃ": 1209,
      "Ġhele": 1210,
      "Ġlit": 1211,
      "Ġlike": 1212,
      "ringe": 1213,
      "tale": 1214,
      "nna": 1215,
      "ans": 1216,
      "Ġsine": 1217,
      "vid": 1218,
      "nk": 1219,
      "Ġbu": 1220,
      "Ġmat": 1221,
      "ith": 1222,
      "slag": 1223,
      "Ġfinne": 1224,
      "sc": 1225,
      "pa": 1226,
      "ĠhÃ": 1227,
      "nsi": 1228,
      "ju": 1229,
      "ps": 1230,
      "med": 1231,
      "¥nd": 1232,
      "vent": 1233,
      "ht": 1234,
      "==": 1235,
      "tis": 1236,
      "Ġbil": 1237,
      "ĠÃĺ": 1238,
      "Ġinte": 1239,
      "ĠPro": 1240,
      "Ġlite": 1241,
      "Ġkommune": 1242,
      "Ġhos": 1243,
      "vÃ¥": 1244,
      "Ġhva": 1245,
      "Ġord": 1246,
      "Ġsamt": 1247,
      "far": 1248,
      "Ġmest": 1249,
      "Ġkj": 1250,
      "Ġgang": 1251,
      "Ġka": 1252,
      "stÃ": 1253,
      "Ġspesi": 1254,
      "ligt": 1255,
      "Ġverd": 1256,
      "ĠSam": 1257,
      "kket": 1258,
      "Ġenkelt": 1259,
      "Ġfer": 1260,
      "Ã¤l": 1261,
      "Ġskulle": 1262,
      "Ġhvordan": 1263,
      "ote": 1264,
      "vd": 1265,
      "Ġfar": 1266,
      "Ġlok": 1267,
      "ĠvÃ¦rt": 1268,
      "Ã°a": 1269,
      "tu": 1270,
      "Ġare": 1271,
      "mar": 1272,
      "Ġnatur": 1273,
      "Ġjo": 1274,
      "line": 1275,
      "ĠUt": 1276,
      "eller": 1277,
      "ĠNorge": 1278,
      "eb": 1279,
      "rik": 1280,
      "||": 1281,
      "Ġrund": 1282,
      "rÃ¡": 1283,
      "Ġvart": 1284,
      "orte": 1285,
      "ntet": 1286,
      "Ġtillegg": 1287,
      "spe": 1288,
      "Ġva": 1289,
      "Ġlu": 1290,
      "ĠlÃ¥": 1291,
      "ĠHv": 1292,
      "litet": 1293,
      "Ġhjem": 1294,
      "gÃ": 1295,
      "oh": 1296,
      "ndi": 1297,
      "Ġsett": 1298,
      "Ġpre": 1299,
      "ĠnÃ¦r": 1300,
      "__": 1301,
      "stilling": 1302,
      "rÃ¥det": 1303,
      "ultur": 1304,
      "ilde": 1305,
      "verk": 1306,
      "form": 1307,
      "andi": 1308,
      "ĠSÃ": 1309,
      "ksom": 1310,
      "Ġbes": 1311,
      "Ġfyl": 1312,
      ")ĊĊ": 1313,
      "Ġulike": 1314,
      "Ġhun": 1315,
      "elser": 1316,
      "Ġko": 1317,
      "ĠFi": 1318,
      "Ġint": 1319,
      "sik": 1320,
      "Ġbarn": 1321,
      "gÃ¥": 1322,
      "Ġkri": 1323,
      "aren": 1324,
      "Ã¸te": 1325,
      "Ġkvi": 1326,
      "Ġfu": 1327,
      "ĠDa": 1328,
      "Ġfly": 1329,
      "kur": 1330,
      "ĠNÃ¥r": 1331,
      "tive": 1332,
      "anger": 1333,
      "ked": 1334,
      "ĠLe": 1335,
      "gende": 1336,
      "sla": 1337,
      "sig": 1338,
      "ĠMa": 1339,
      "ess": 1340,
      "lege": 1341,
      "ĠstÃ¸rr": 1342,
      "lant": 1343,
      "Ġsiden": 1344,
      "sst": 1345,
      "Ġingen": 1346,
      "ule": 1347,
      "gre": 1348,
      "skje": 1349,
      "Ġtilba": 1350,
      "Ġsamme": 1351,
      "Ġmenne": 1352,
      "ĠMi": 1353,
      "Ġstr": 1354,
      "Ġkre": 1355,
      "ĠEi": 1356,
      "utom": 1357,
      "sett": 1358,
      "stre": 1359,
      "Ġho": 1360,
      "pper": 1361,
      "kere": 1362,
      "asjon": 1363,
      "Ġmo": 1364,
      "Âł": 1365,
      "nu": 1366,
      "las": 1367,
      "\"Ċ": 1368,
      "mid": 1369,
      "Ġmid": 1370,
      "Ġbruk": 1371,
      "ĠstÃ¸": 1372,
      "omi": 1373,
      "Ġlo": 1374,
      "Ġgode": 1375,
      "Ġspille": 1376,
      "amil": 1377,
      "Ġlever": 1378,
      "ction": 1379,
      "satt": 1380,
      "ĠĠĠ": 1381,
      "ligere": 1382,
      "ringen": 1383,
      "Ġgam": 1384,
      "Ġrundt": 1385,
      "anske": 1386,
      "Ġhu": 1387,
      "Ġhov": 1388,
      "ktor": 1389,
      "stÃ¥": 1390,
      "fÃ¸l": 1391,
      "ĠspÃ¸r": 1392,
      "nden": 1393,
      "Ġhvis": 1394,
      "sit": 1395,
      "ĠSÃ¥": 1396,
      "Ġorg": 1397,
      "Ġid": 1398,
      "andet": 1399,
      "ex": 1400,
      "gg": 1401,
      "Ġfag": 1402,
      "Ġspil": 1403,
      "takt": 1404,
      "egi": 1405,
      "Ġtar": 1406,
      "Ġforhold": 1407,
      "oku": 1408,
      "ĠvÃ¥re": 1409,
      "Ġeffe": 1410,
      "Ġfin": 1411,
      "asse": 1412,
      "ĠgjÃ¸re": 1413,
      "ĠTa": 1414,
      "Ġvit": 1415,
      "sle": 1416,
      "ving": 1417,
      "elsen": 1418,
      "Ġkli": 1419,
      "Ġwith": 1420,
      "Å¡": 1421,
      "klu": 1422,
      "nere": 1423,
      "ku": 1424,
      "ome": 1425,
      "Ġoff": 1426,
      "Ġsitt": 1427,
      "Ġcon": 1428,
      "ĠÃ¸nsker": 1429,
      "ĠKom": 1430,
      "ĠOm": 1431,
      "Ġigje": 1432,
      "rag": 1433,
      "bar": 1434,
      "Ġfun": 1435,
      "Ã©": 1436,
      "ĠHvis": 1437,
      "Ġsl": 1438,
      "sd": 1439,
      "semp": 1440,
      "rin": 1441,
      "eret": 1442,
      "sol": 1443,
      "Ġhold": 1444,
      "iÃ°": 1445,
      "ĠHar": 1446,
      "Ġveldig": 1447,
      "au": 1448,
      "side": 1449,
      "ĠmÃ¥l": 1450,
      "sal": 1451,
      "fÃ¸rt": 1452,
      "ĠIn": 1453,
      "Ġinst": 1454,
      "Ġpoliti": 1455,
      "Ġinformasjon": 1456,
      "Ġbeste": 1457,
      "ndt": 1458,
      "man": 1459,
      "ĠY": 1460,
      "Ġsn": 1461,
      "Ġarbe": 1462,
      "Ġdere": 1463,
      "Ġbid": 1464,
      "til": 1465,
      "ned": 1466,
      "stand": 1467,
      "ĠEr": 1468,
      "fÃ¸": 1469,
      "Ġsiste": 1470,
      "ĠTh": 1471,
      "Ġnytt": 1472,
      "Ġbra": 1473,
      "Ġ:": 1474,
      "Ġhev": 1475,
      "ĠmÃ¥t": 1476,
      "sÃ¦r": 1477,
      "Ġcasino": 1478,
      "yde": 1479,
      "Ġimp": 1480,
      "Ġliv": 1481,
      "lass": 1482,
      "Ã¸g": 1483,
      "spro": 1484,
      "Ġegen": 1485,
      "Ġefter": 1486,
      "par": 1487,
      "Ġigjen": 1488,
      "Ġdine": 1489,
      "|Ċ": 1490,
      "Ġtro": 1491,
      "Ġofte": 1492,
      "Ġhelse": 1493,
      "vil": 1494,
      "Ġmindre": 1495,
      "ĠsÃ¦r": 1496,
      "lÃ": 1497,
      "Ġhal": 1498,
      "unkt": 1499,
      "Ġtilbake": 1500,
      "Ġlag": 1501,
      "Ġas": 1502,
      "Ġfast": 1503,
      "bet": 1504,
      "kl": 1505,
      "meld": 1506,
      "Ġdata": 1507,
      "kning": 1508,
      "Ġmor": 1509,
      "Ġderes": 1510,
      "by": 1511,
      "Ġhvil": 1512,
      "Ġ/": 1513,
      "ĠfÃ¸": 1514,
      "Ġpra": 1515,
      "tere": 1516,
      "ĠVed": 1517,
      "ĠÃº": 1518,
      "Ġviser": 1519,
      "ĠTe": 1520,
      "Ġtur": 1521,
      "Ġstyr": 1522,
      "Ġsikker": 1523,
      "Ġdating": 1524,
      "dri": 1525,
      "ĠDenne": 1526,
      "itt": 1527,
      "gel": 1528,
      "kra": 1529,
      "ĠmÃ¥te": 1530,
      "ksi": 1531,
      "jÃ¸r": 1532,
      "Ġtu": 1533,
      "mme": 1534,
      "mun": 1535,
      "oen": 1536,
      "Ġprosje": 1537,
      "ĠCh": 1538,
      "Ġtilf": 1539,
      "...": 1540,
      "our": 1541,
      "older": 1542,
      "Ġthat": 1543,
      "kse": 1544,
      "ral": 1545,
      "inge": 1546,
      "br": 1547,
      "sr": 1548,
      "Ġsamarbeid": 1549,
      "Ġeksemp": 1550,
      "Ġ\"\"": 1551,
      "yn": 1552,
      "EN": 1553,
      "ude": 1554,
      "Ġni": 1555,
      "ĠSom": 1556,
      "ĠFÃ¸r": 1557,
      "ĠBer": 1558,
      "ĠEg": 1559,
      "ev": 1560,
      "ay": 1561,
      "nene": 1562,
      "Ġvert": 1563,
      "Ġkla": 1564,
      "tning": 1565,
      "Ġopple": 1566,
      "Ġsier": 1567,
      "Ġorgani": 1568,
      "Ġif": 1569,
      "IN": 1570,
      "linge": 1571,
      "com": 1572,
      "san": 1573,
      "Ġfil": 1574,
      "Ġbak": 1575,
      "int": 1576,
      "rÃ¤": 1577,
      "Ġderfor": 1578,
      "Ġkomme": 1579,
      "stad": 1580,
      "Ġbedr": 1581,
      "tal": 1582,
      "Ġgratis": 1583,
      "ĠprÃ¸": 1584,
      "nnet": 1585,
      "ĠÃ¶": 1586,
      "hu": 1587,
      "arar": 1588,
      "ia": 1589,
      "eder": 1590,
      "Ġbarne": 1591,
      "Ġannet": 1592,
      "nti": 1593,
      "Ġinnen": 1594,
      "jÃ³": 1595,
      "Ġbedre": 1596,
      "sed": 1597,
      "Ġveg": 1598,
      "Ġrom": 1599,
      "Ġcom": 1600,
      "Ġvidere": 1601,
      "Ġbruker": 1602,
      "sfor": 1603,
      "lingen": 1604,
      "ĠOslo": 1605,
      "sering": 1606,
      "Ġresult": 1607,
      "Ġung": 1608,
      "Ġting": 1609,
      "Ġsent": 1610,
      "aly": 1611,
      "rum": 1612,
      "nda": 1613,
      "Ġblitt": 1614,
      "Ġhei": 1615,
      "Ġca": 1616,
      "sion": 1617,
      "ĠÂ§": 1618,
      "ĠMar": 1619,
      "âĢĻ": 1620,
      "Ġfore": 1621,
      "Ġstil": 1622,
      "name": 1623,
      "ĠdÃ": 1624,
      "ĠstÃ¥r": 1625,
      "Ġro": 1626,
      "Ã¸rer": 1627,
      "sning": 1628,
      "tidig": 1629,
      "ĠnÃ¸d": 1630,
      "styr": 1631,
      "Ã¡l": 1632,
      "Ġblant": 1633,
      "ateri": 1634,
      "ute": 1635,
      "mentet": 1636,
      "ĠfÃ¥tt": 1637,
      "Ġjag": 1638,
      "Ġkultur": 1639,
      "smÃ¥l": 1640,
      "vitet": 1641,
      "Ġeng": 1642,
      "tiv": 1643,
      "Ġville": 1644,
      "sto": 1645,
      "lin": 1646,
      "nten": 1647,
      "Ġnorske": 1648,
      "Ġdire": 1649,
      "ple": 1650,
      "eng": 1651,
      "sin": 1652,
      "----------------": 1653,
      "ktisk": 1654,
      "ĠmÃ¸": 1655,
      "Ġhist": 1656,
      "¥t": 1657,
      "Ġfj": 1658,
      "ik": 1659,
      "Ġpu": 1660,
      "ingar": 1661,
      "Ġ.": 1662,
      "Ġmedlem": 1663,
      "onen": 1664,
      "Ã¸k": 1665,
      "Ġslu": 1666,
      "Ġfordi": 1667,
      "bel": 1668,
      "ben": 1669,
      "Ġgjort": 1670,
      "Ġ+": 1671,
      "velse": 1672,
      "ĠsmÃ": 1673,
      "Ġaller": 1674,
      "Ġflo": 1675,
      "Ġdy": 1676,
      "rige": 1677,
      "Ġfamil": 1678,
      "lef": 1679,
      "ĠdÃ¥": 1680,
      "ĠsmÃ¥": 1681,
      "heng": 1682,
      "Ġkunn": 1683,
      "ĠEtter": 1684,
      "udd": 1685,
      "jd": 1686,
      "**": 1687,
      "dre": 1688,
      "vert": 1689,
      "ĠstÃ¸rre": 1690,
      "sna": 1691,
      "tisk": 1692,
      "urs": 1693,
      "Ġvere": 1694,
      "Ġide": 1695,
      "Ġligger": 1696,
      "Ġbegy": 1697,
      "ĠTr": 1698,
      "Ġtri": 1699,
      "gene": 1700,
      "Ġch": 1701,
      "Ġbok": 1702,
      "Ġhans": 1703,
      ":ĊĊ": 1704,
      "Ġmeir": 1705,
      "ces": 1706,
      "Ġru": 1707,
      "Ġ&": 1708,
      "ĠNord": 1709,
      "Ġfikk": 1710,
      "ĠâĢľ": 1711,
      "Ġfull": 1712,
      "ford": 1713,
      "Ġ[": 1714,
      "Ġeru": 1715,
      "ĠOpp": 1716,
      "mt": 1717,
      "itu": 1718,
      "rukt": 1719,
      "ĠJa": 1720,
      "Ġfrom": 1721,
      "ï¿": 1722,
      "ï¿½": 1723,
      "Ġditt": 1724,
      "Ġga": 1725,
      "Ġsamf": 1726,
      "Ġsh": 1727,
      "Ġbehov": 1728,
      "sku": 1729,
      "ĠĠĠĠĠĠĠĠĠĠĠĠĠĠĠĠĠĠĠĠĠĠĠĠĠĠĠĠĠĠĠĠ": 1730,
      "Ġten": 1731,
      "Ġalltid": 1732,
      "end": 1733,
      "Ġstat": 1734,
      "ĠÃ¥re": 1735,
      "liga": 1736,
      "lighet": 1737,
      "beh": 1738,
      "Ġkontakt": 1739,
      "Ġsko": 1740,
      "kka": 1741,
      "elder": 1742,
      "skapet": 1743,
      "ww": 1744,
      "mber": 1745,
      "Ġonline": 1746,
      "sko": 1747,
      "ina": 1748,
      "ĠNe": 1749,
      "Ã¥t": 1750,
      "mm": 1751,
      "Ġeksempel": 1752,
      "ĠEl": 1753,
      "edet": 1754,
      "ĠÃ¦": 1755,
      "fÃ¸re": 1756,
      "ath": 1757,
      "Ġsaman": 1758,
      "nning": 1759,
      "Ġuni": 1760,
      "Ġkost": 1761,
      "Ġfolk": 1762,
      "dert": 1763,
      "Ġbehandling": 1764,
      ".no": 1765,
      "Ġnorsk": 1766,
      "ĠmiljÃ¸": 1767,
      "Ġredu": 1768,
      "Ġ%": 1769,
      "Ġkort": 1770,
      "vere": 1771,
      "ves": 1772,
      "atet": 1773,
      "pre": 1774,
      "oden": 1775,
      "ĠAv": 1776,
      "ĠlÃ¦": 1777,
      "ala": 1778,
      "uld": 1779,
      "ĠÃ¸kon": 1780,
      "Ġstad": 1781,
      "Ġhoved": 1782,
      "ĠHa": 1783,
      "Ġstand": 1784,
      "Ġsto": 1785,
      "ors": 1786,
      "Ġter": 1787,
      "ingen": 1788,
      "kten": 1789,
      "ygge": 1790,
      "Ġsna": 1791,
      "ften": 1792,
      "Ã³l": 1793,
      "Ġsti": 1794,
      "Ġkjem": 1795,
      "vat": 1796,
      "Ġlett": 1797,
      "Ġblo": 1798,
      "rad": 1799,
      "Ġdo": 1800,
      "ye": 1801,
      "ĠVe": 1802,
      "ĠtÃŃ": 1803,
      "OR": 1804,
      "Ġgre": 1805,
      "olle": 1806,
      "serte": 1807,
      "Ġvurd": 1808,
      "Ġnot": 1809,
      "Ġbestem": 1810,
      "Ġmens": 1811,
      "kene": 1812,
      "king": 1813,
      "Ġdr": 1814,
      "Ġun": 1815,
      "Ġutt": 1816,
      "ty": 1817,
      "lik": 1818,
      "terna": 1819,
      "ress": 1820,
      "Ġlov": 1821,
      "-p": 1822,
      "vde": 1823,
      "Ã°u": 1824,
      "kes": 1825,
      "ĠnÃ¸dve": 1826,
      "Ġutvikling": 1827,
      "Ġster": 1828,
      "risti": 1829,
      "kel": 1830,
      "Ġprogram": 1831,
      "ĠInn": 1832,
      "nergi": 1833,
      "ĠtaÃ°": 1834,
      "ĠsjÃ¸l": 1835,
      "Ġansvar": 1836,
      "bil": 1837,
      "yret": 1838,
      "ris": 1839,
      "satte": 1840,
      "hus": 1841,
      "sikt": 1842,
      "Ġ**": 1843,
      "ĠDi": 1844,
      "anta": 1845,
      "itet": 1846,
      "Ġposi": 1847,
      "senter": 1848,
      "Ġvera": 1849,
      "Ġhave": 1850,
      "Ġkap": 1851,
      "Ġsol": 1852,
      "ktige": 1853,
      "Ġtjene": 1854,
      "Ġnu": 1855,
      "Ġvirke": 1856,
      "Ġeta": 1857,
      "rid": 1858,
      "co": 1859,
      "Ġarbeide": 1860,
      "Ġled": 1861,
      "inn": 1862,
      "lert": 1863,
      "Ġmilli": 1864,
      "ningar": 1865,
      "Ġnum": 1866,
      "mes": 1867,
      "ĠsvÃ¦rt": 1868,
      "Ġapp": 1869,
      "ĠlÃ¦r": 1870,
      "Ġpas": 1871,
      "site": 1872,
      "vÃ¦r": 1873,
      "Ġakt": 1874,
      "Ġdelta": 1875,
      "ĠSel": 1876,
      "Ġtrenger": 1877,
      "Ġ\"\"\"Ċ": 1878,
      "vare": 1879,
      "ĠâĢ¢": 1880,
      "Ġit": 1881,
      "iske": 1882,
      "Ġcan": 1883,
      "rett": 1884,
      "sni": 1885,
      "menter": 1886,
      "Ġvann": 1887,
      "\",": 1888,
      ").Ċ": 1889,
      "lÃ¥": 1890,
      "rol": 1891,
      "Ġgrad": 1892,
      "up": 1893,
      "avn": 1894,
      "Ġstort": 1895,
      "Ġarti": 1896,
      "Ġikki": 1897,
      "ĠlÃ¤": 1898,
      "ĠfrÃ¡": 1899,
      "Ġkanskje": 1900,
      "ity": 1901,
      "aten": 1902,
      "Ġ{": 1903,
      "Ġklar": 1904,
      "fo": 1905,
      "ĠhÃ¥nd": 1906,
      "sninger": 1907,
      "Ġoffent": 1908,
      "vÃ¤": 1909,
      "ons": 1910,
      "alle": 1911,
      "ĠEt": 1912,
      "ige": 1913,
      "blem": 1914,
      "Ġprosent": 1915,
      "ĠSi": 1916,
      "faring": 1917,
      "sÃ¦": 1918,
      "mark": 1919,
      "Ġsal": 1920,
      "van": 1921,
      "Ġsem": 1922,
      "Ġlangt": 1923,
      "gjenge": 1924,
      "rig": 1925,
      "ld": 1926,
      "ĠAlle": 1927,
      "ĠKon": 1928,
      "Ġperi": 1929,
      "ror": 1930,
      "ĠâĢĿ": 1931,
      "sene": 1932,
      "nta": 1933,
      "tre": 1934,
      "Ġforskjel": 1935,
      "ĠPer": 1936,
      "Ġhi": 1937,
      "ĠrÃ¥d": 1938,
      "nnen": 1939,
      "stisk": 1940,
      "Ġretur": 1941,
      "Ġ-Ċ": 1942,
      "gte": 1943,
      "Ġrel": 1944,
      "Ġtru": 1945,
      "Ġvari": 1946,
      "ine": 1947,
      "nal": 1948,
      "ĠSo": 1949,
      "mene": 1950,
      "Ġgjelder": 1951,
      "nasjon": 1952,
      "Ġinklu": 1953,
      "rÃ¸m": 1954,
      "berg": 1955,
      "fri": 1956,
      "ktiv": 1957,
      "âĢ¦": 1958,
      "ĠGe": 1959,
      "Ġfleste": 1960,
      "Ġvok": 1961,
      "Ã¥re": 1962,
      "ndelse": 1963,
      "leis": 1964,
      "veld": 1965,
      "Ġkroner": 1966,
      "Ġbesk": 1967,
      "ample": 1968,
      "roll": 1969,
      "Ġstar": 1970,
      "Ġgjeld": 1971,
      "elles": 1972,
      "ĠsÃ¤": 1973,
      "Ġford": 1974,
      "sma": 1975,
      "Ã½": 1976,
      "rÃ¥k": 1977,
      "byg": 1978,
      "ante": 1979,
      "ĠPe": 1980,
      "Ġfinn": 1981,
      "Ġhy": 1982,
      "ĠBru": 1983,
      "Ġeig": 1984,
      "Ġsosi": 1985,
      "Ġfinner": 1986,
      "elag": 1987,
      "tiske": 1988,
      "holde": 1989,
      "Ġhevur": 1990,
      "ĠâĢĶ": 1991,
      "alla": 1992,
      "ST": 1993,
      "otel": 1994,
      "tra": 1995,
      "ĠLa": 1996,
      "Ġob": 1997,
      "pport": 1998,
      "ĠFa": 1999,
      "bruk": 2000,
      "Ġperso": 2001,
      "iljÃ¸": 2002,
      "ĠnÃ¦ring": 2003,
      "Ġvet": 2004,
      "uren": 2005,
      "Ġaldri": 2006,
      "Ġbor": 2007,
      "vice": 2008,
      "Ġsc": 2009,
      "Ġplass": 2010,
      "Ã¸ye": 2011,
      "Ġevent": 2012,
      ".com": 2013,
      "ĠBar": 2014,
      "Ġskjer": 2015,
      "Ġleve": 2016,
      "Ġvore": 2017,
      "autom": 2018,
      "Ġutan": 2019,
      "Ġkny": 2020,
      "Ġfyr": 2021,
      "Ġvanske": 2022,
      "serer": 2023,
      "ini": 2024,
      "Ġgo": 2025,
      "Ġfot": 2026,
      "AN": 2027,
      "Ġgu": 2028,
      "Ġnord": 2029,
      "ym": 2030,
      "cu": 2031,
      "ĠSta": 2032,
      "ighet": 2033,
      "ein": 2034,
      "Ġnoko": 2035,
      "alde": 2036,
      "plan": 2037,
      "Ġmeget": 2038,
      "Ġsikre": 2039,
      "Ġfjer": 2040,
      "kst": 2041,
      "Ġanbe": 2042,
      "andr": 2043,
      "¥let": 2044,
      "Ġkvalitet": 2045,
      "Ġ,": 2046,
      "Ġkrav": 2047,
      "Ġhann": 2048,
      "Ã¥let": 2049,
      "Ġdesig": 2050,
      "gens": 2051,
      "ĠfÃ¸re": 2052,
      "gu": 2053,
      "ĠDei": 2054,
      "ĠFr": 2055,
      "ttar": 2056,
      "ank": 2057,
      "................................": 2058,
      "ĠEx": 2059,
      "lede": 2060,
      "sÃ¸r": 2061,
      "Ġvei": 2062,
      "her": 2063,
      "mod": 2064,
      "Ã¢": 2065,
      "Ġtidligere": 2066,
      "Ġmennesker": 2067,
      "fÃ¶r": 2068,
      "ĠverÃ°ur": 2069,
      "Ġtide": 2070,
      "bed": 2071,
      "Ġoppd": 2072,
      "ance": 2073,
      "tert": 2074,
      "AR": 2075,
      "Ġself": 2076,
      "vene": 2077,
      "mini": 2078,
      "sport": 2079,
      "Ġkv": 2080,
      "tic": 2081,
      "====": 2082,
      "Ġau": 2083,
      "stet": 2084,
      "Ġtiltak": 2085,
      "ach": 2086,
      "Ġekstra": 2087,
      "dige": 2088,
      "kkel": 2089,
      "ĠHva": 2090,
      "Ġfo": 2091,
      "De": 2092,
      "hand": 2093,
      "fj": 2094,
      "eling": 2095,
      "Ġkompet": 2096,
      "ĠMan": 2097,
      "ĠSve": 2098,
      "Ġverde": 2099,
      "ĠNy": 2100,
      "ĠAn": 2101,
      "fÃ¸ring": 2102,
      "Ġx": 2103,
      "Ġund": 2104,
      "inga": 2105,
      "ĠsÃŃ": 2106,
      "tikk": 2107,
      "rit": 2108,
      "Ġhatt": 2109,
      "Ġâ": 2110,
      "sket": 2111,
      "ai": 2112,
      "stene": 2113,
      "kdom": 2114,
      "Ġhen": 2115,
      "ĠRo": 2116,
      "Ġtok": 2117,
      "ngd": 2118,
      "sÃ¤": 2119,
      "Ġgjerne": 2120,
      "ys": 2121,
      "Ã¸de": 2122,
      "gs": 2123,
      "ĠfÃ¸rst": 2124,
      "Ġtilgjenge": 2125,
      "nader": 2126,
      "Ġinteres": 2127,
      "Ġhenne": 2128,
      "era": 2129,
      "Ġtry": 2130,
      "midler": 2131,
      "Ġmob": 2132,
      "Ġtran": 2133,
      "Ġlei": 2134,
      "ze": 2135,
      "Ġdan": 2136,
      "Ġverden": 2137,
      "fra": 2138,
      "Ġpart": 2139,
      "erte": 2140,
      "kta": 2141,
      "Ã¸rt": 2142,
      "nse": 2143,
      "Ã¥nd": 2144,
      "Ġhjemme": 2145,
      "ĠSu": 2146,
      "Ġregistr": 2147,
      "ndet": 2148,
      "ĠPo": 2149,
      "Ġfir": 2150,
      "dt": 2151,
      "taling": 2152,
      "Ã°ar": 2153,
      "danning": 2154,
      "iden": 2155,
      "ĠmÃ¡": 2156,
      "Ġdra": 2157,
      "ron": 2158,
      "ET": 2159,
      "Ġdagen": 2160,
      "SA": 2161,
      "lev": 2162,
      "lade": 2163,
      "ĠnÃ¸dvendig": 2164,
      "Ġann": 2165,
      "Ġmedi": 2166,
      "Ġpop": 2167,
      "nologi": 2168,
      "Ġannen": 2169,
      "ĠmÃ¸te": 2170,
      "sat": 2171,
      "angen": 2172,
      "Ġrek": 2173,
      "orie": 2174,
      "under": 2175,
      "jen": 2176,
      "ftir": 2177,
      "ĠsjÃ¸lv": 2178,
      "vol": 2179,
      "sette": 2180,
      "Ãĺ": 2181,
      "Ġliten": 2182,
      "Ġfleire": 2183,
      "Ġmet": 2184,
      "ĠJoh": 2185,
      "Ġspill": 2186,
      "Ġvirksom": 2187,
      "Ġheller": 2188,
      "sve": 2189,
      "Ġtatt": 2190,
      "erende": 2191,
      "Ġhjelp": 2192,
      "ĠmÃ¥tte": 2193,
      "Ġmarked": 2194,
      "ttes": 2195,
      "ĠOr": 2196,
      "Ġkommun": 2197,
      "rÃ¥der": 2198,
      "enter": 2199,
      "mel": 2200,
      "Ġmang": 2201,
      "Ġproblem": 2202,
      "ĠhjÃ¡": 2203,
      "Ġarbeidet": 2204,
      "ĠhÃ¥": 2205,
      "Ġomfa": 2206,
      "ĠStor": 2207,
      "aret": 2208,
      "Ġanna": 2209,
      "skt": 2210,
      "stri": 2211,
      "ĠsÃ¸k": 2212,
      "Ġyou": 2213,
      "Ġskap": 2214,
      "Ġlagt": 2215,
      "grunn": 2216,
      "uelle": 2217,
      "ĠSy": 2218,
      "ĠKan": 2219,
      "Ġminst": 2220,
      "hen": 2221,
      "Ġmere": 2222,
      "Ġke": 2223,
      "rar": 2224,
      "bud": 2225,
      "sjone": 2226,
      "Ġberr": 2227,
      "ĠBo": 2228,
      "Ġhava": 2229,
      "ĠNÃ": 2230,
      "ĠsÃ¸r": 2231,
      "Ġkunde": 2232,
      "Äĳ": 2233,
      "heim": 2234,
      "ogra": 2235,
      "Ġminu": 2236,
      "Ġfekk": 2237,
      "Ġgamle": 2238,
      "sne": 2239,
      "ĠDan": 2240,
      "pli": 2241,
      "Ġberre": 2242,
      "Ġco": 2243,
      "rien": 2244,
      "âĢĵ": 2245,
      "age": 2246,
      "Ġpris": 2247,
      "Ġskole": 2248,
      "nsyn": 2249,
      "Ġfem": 2250,
      "Ġdat": 2251,
      "Ġdoku": 2252,
      "mot": 2253,
      "ĠforstÃ¥": 2254,
      "Ġbel": 2255,
      "splan": 2256,
      "lÃ¦": 2257,
      "tin": 2258,
      "ĠundersÃ¸": 2259,
      "Ġenergi": 2260,
      "vikling": 2261,
      "Ġab": 2262,
      "Ġene": 2263,
      "sek": 2264,
      "reg": 2265,
      "Ġtan": 2266,
      "ansen": 2267,
      "Ġungdom": 2268,
      "Ġverdi": 2269,
      "skudd": 2270,
      "Ġvia": 2271,
      "ĠÃºt": 2272,
      "Ġforbi": 2273,
      "ĠGud": 2274,
      "Ġstarte": 2275,
      "ind": 2276,
      "Ġkunnskap": 2277,
      "Ġjord": 2278,
      "ĠfÃ¸lge": 2279,
      "ppa": 2280,
      "Ġmai": 2281,
      "ĠspÃ¸rsmÃ¥l": 2282,
      "Ġskr": 2283,
      "Ġfinnes": 2284,
      "bygg": 2285,
      "ĠÃį": 2286,
      "ĠÃ¥ret": 2287,
      "Ġsle": 2288,
      "lut": 2289,
      "Ġbidra": 2290,
      "oder": 2291,
      "Ġpi": 2292,
      "Ġhus": 2293,
      "isse": 2294,
      "ko": 2295,
      "Ġmig": 2296,
      "'s": 2297,
      "fr": 2298,
      "Ġmateri": 2299,
      "Ġerfaring": 2300,
      "fÃ¸lge": 2301,
      "late": 2302,
      "Ġpasi": 2303,
      "Ġvanlig": 2304,
      "ĠstÃ¸rste": 2305,
      "ngr": 2306,
      "Ġkvar": 2307,
      "lle": 2308,
      "ores": 2309,
      "Ġ'": 2310,
      "Ġnr": 2311,
      "Ġanaly": 2312,
      "sme": 2313,
      "Ġmei": 2314,
      "Ġrepre": 2315,
      "(\"": 2316,
      "Ġarran": 2317,
      "orten": 2318,
      "Ġham": 2319,
      "last": 2320,
      "Ġhon": 2321,
      "mentar": 2322,
      "Ġfanta": 2323,
      "lub": 2324,
      "Ġgar": 2325,
      "Ġbrukes": 2326,
      "vne": 2327,
      "ho": 2328,
      "valt": 2329,
      "stu": 2330,
      "pi": 2331,
      "ĠfrÃ¥n": 2332,
      "oren": 2333,
      "urt": 2334,
      "Ġhvert": 2335,
      "lagt": 2336,
      "ĠkÃ¸": 2337,
      "een": 2338,
      "Ġkonkur": 2339,
      "olk": 2340,
      "nor": 2341,
      "Ġtiden": 2342,
      "stid": 2343,
      "ĠgrÃ¸": 2344,
      "Ġkommunen": 2345,
      "vÃŃ": 2346,
      "ĊĊĊ": 2347,
      "Ġproble": 2348,
      "Ġeitt": 2349,
      "svi": 2350,
      "skom": 2351,
      "lÃ¦ring": 2352,
      "Ġfire": 2353,
      "nni": 2354,
      "ĠLes": 2355,
      "Ġbedri": 2356,
      "Ġspesielt": 2357,
      "Ġorganisa": 2358,
      "ĠNÃ¥": 2359,
      "Ġreise": 2360,
      "Ġpubli": 2361,
      "vor": 2362,
      "sut": 2363,
      "cer": 2364,
      "Ġnasjon": 2365,
      "Ġsamtidig": 2366,
      "Ġprof": 2367,
      "gÃ¥r": 2368,
      "jert": 2369,
      "tig": 2370,
      "aler": 2371,
      "Ġsitu": 2372,
      "EL": 2373,
      "ember": 2374,
      "gent": 2375,
      "leder": 2376,
      "Ġmusi": 2377,
      "Ġmener": 2378,
      ".,": 2379,
      "syn": 2380,
      "mal": 2381,
      "tting": 2382,
      "Ġkam": 2383,
      "produ": 2384,
      "rist": 2385,
      "vn": 2386,
      "ĠAt": 2387,
      "Ġindi": 2388,
      "ork": 2389,
      "ital": 2390,
      "ĠvÃ¥rt": 2391,
      "ĠEin": 2392,
      "Ġvak": 2393,
      "rykk": 2394,
      "Ġtime": 2395,
      "anden": 2396,
      "fall": 2397,
      "ĠArbe": 2398,
      "Ġfelles": 2399,
      "ĠSa": 2400,
      "Ġblev": 2401,
      "Ġstem": 2402,
      "//": 2403,
      "Ġprint": 2404,
      "tti": 2405,
      "ĠstÃ¸tte": 2406,
      "artementet": 2407,
      "\")Ċ": 2408,
      "Ġsame": 2409,
      "laget": 2410,
      "Ġinnan": 2411,
      "Ġinve": 2412,
      "lid": 2413,
      "ĠAd": 2414,
      "Ġdersom": 2415,
      "ĠUnder": 2416,
      "ĠomrÃ¥det": 2417,
      "ĠUni": 2418,
      "nade": 2419,
      "ĠHo": 2420,
      "Ġbon": 2421,
      "Ġwe": 2422,
      "Ġbort": 2423,
      "Ġalterna": 2424,
      "Ġfaktisk": 2425,
      "skel": 2426,
      "ĠInter": 2427,
      "ĠGr": 2428,
      "to": 2429,
      "Ġdyr": 2430,
      "ĠLo": 2431,
      "Ġsyn": 2432,
      "ndes": 2433,
      "evet": 2434,
      "ĠBr": 2435,
      "kku": 2436,
      "Ġdrift": 2437,
      "lefon": 2438,
      "ca": 2439,
      "kan": 2440,
      "sorg": 2441,
      "ĠZ": 2442,
      "sur": 2443,
      "orden": 2444,
      "Ġgener": 2445,
      "ĠTo": 2446,
      "ĠAS": 2447,
      "Ġlivet": 2448,
      "mb": 2449,
      "ĠEur": 2450,
      "ers": 2451,
      "nett": 2452,
      "visning": 2453,
      "holder": 2454,
      "Ġmine": 2455,
      "Ġhur": 2456,
      "ĠRi": 2457,
      "resse": 2458,
      "tions": 2459,
      "Ġsted": 2460,
      "Ġskj": 2461,
      "bok": 2462,
      "elte": 2463,
      "Ġbrukt": 2464,
      "aÃ°": 2465,
      "dal": 2466,
      "ĠÃ¥p": 2467,
      "ĠlÃ¦re": 2468,
      "min": 2469,
      "Ġdager": 2470,
      "mo": 2471,
      "ON": 2472,
      "Ġol": 2473,
      "Ġdirekte": 2474,
      "Ġmeld": 2475,
      "spunkt": 2476,
      "Ġ\\": 2477,
      "fy": 2478,
      "riÃ°": 2479,
      "Ġrei": 2480,
      "versite": 2481,
      "ars": 2482,
      "nget": 2483,
      "Ġsan": 2484,
      ".a": 2485,
      "lie": 2486,
      "sak": 2487,
      "Ġkjent": 2488,
      "Ġsty": 2489,
      "Ġtilbyr": 2490,
      "Ġferdig": 2491,
      "anu": 2492,
      "://": 2493,
      "vu": 2494,
      "Ġallerede": 2495,
      "Ġvurdering": 2496,
      "Ġforskjellige": 2497,
      "valg": 2498,
      "Ġgjorde": 2499,
      "ansi": 2500,
      "Ġant": 2501,
      "Ġgene": 2502,
      "Ġ$": 2503,
      "kki": 2504,
      "jar": 2505,
      "Ġelekt": 2506,
      "ah": 2507,
      "Ġpsy": 2508,
      "Ġbud": 2509,
      "Ġkar": 2510,
      "Ġset": 2511,
      "Ġsvar": 2512,
      "Ġok": 2513,
      "alte": 2514,
      "Ġkveld": 2515,
      "ĠVer": 2516,
      "ili": 2517,
      "taler": 2518,
      "mere": 2519,
      "Ġtror": 2520,
      "Ġspilleautom": 2521,
      "nert": 2522,
      "klar": 2523,
      "eden": 2524,
      "Ġlaget": 2525,
      "Ġkunst": 2526,
      "Ġmykje": 2527,
      "Ġhjelpe": 2528,
      "pas": 2529,
      "ved": 2530,
      "lsen": 2531,
      "Ġneste": 2532,
      "ĠVel": 2533,
      "example": 2534,
      "fore": 2535,
      "ĠMo": 2536,
      "Ġvide": 2537,
      "Ġrekke": 2538,
      ".d": 2539,
      "Ġunge": 2540,
      "ĠX": 2541,
      "Ã¤n": 2542,
      "Ġbeny": 2543,
      "Ġac": 2544,
      "Ġjobb": 2545,
      "Ġenda": 2546,
      "Ġgjer": 2547,
      "Ġbilde": 2548,
      "ĠstÃ": 2549,
      "okus": 2550,
      "Ġgen": 2551,
      "ringar": 2552,
      "nir": 2553,
      "@example": 2554,
      "ĠstÃ¥": 2555,
      "Ġenkelte": 2556,
      "Ġeftir": 2557,
      "ĠbÃ¸": 2558,
      "ffer": 2559,
      "gelse": 2560,
      "Ġholde": 2561,
      "Ġnem": 2562,
      "Ġskrive": 2563,
      "ĠMu": 2564,
      "ĠdÃ¸": 2565,
      "Ġtal": 2566,
      "edag": 2567,
      "nga": 2568,
      "Ġlegge": 2569,
      "AT": 2570,
      "Ġjuni": 2571,
      "kjÃ¸": 2572,
      "ĠRa": 2573,
      "Ġpopul": 2574,
      "fta": 2575,
      "arbeide": 2576,
      "Ġkal": 2577,
      "Ġbygge": 2578,
      "cy": 2579,
      "inger": 2580,
      "Ġfysi": 2581,
      "pri": 2582,
      "gren": 2583,
      "Ġbygg": 2584,
      "Ġlenge": 2585,
      "Ġganger": 2586,
      "fyl": 2587,
      "ader": 2588,
      "Ġstart": 2589,
      "ĠVest": 2590,
      "Ã¸rr": 2591,
      "Ġtem": 2592,
      "Ġsette": 2593,
      "ngÃ": 2594,
      "ĠvÃ¦r": 2595,
      "stemet": 2596,
      "Ġgitt": 2597,
      "Ġvidare": 2598,
      "Ġaktivitet": 2599,
      "kost": 2600,
      "Ġforeld": 2601,
      "ĠJu": 2602,
      "unum": 2603,
      "ngÃ¥": 2604,
      "Ġlandet": 2605,
      "ings": 2606,
      "cal": 2607,
      "ĠDersom": 2608,
      "Ġkir": 2609,
      "gar": 2610,
      "Ġrisik": 2611,
      "Ġspi": 2612,
      "Ġsamfunn": 2613,
      "Ġful": 2614,
      "Ġtema": 2615,
      "Ġbro": 2616,
      "ING": 2617,
      "vende": 2618,
      "kret": 2619,
      "ĠvÃ¦": 2620,
      "Ġkompetanse": 2621,
      "Ġganske": 2622,
      "]Ċ": 2623,
      "skrift": 2624,
      "ledning": 2625,
      "siden": 2626,
      "ĠFra": 2627,
      "ĠBi": 2628,
      "ĠÃ¸konomi": 2629,
      "Ġpersoner": 2630,
      "put": 2631,
      "ĠsjÃ": 2632,
      "ĠPri": 2633,
      "ĠiÃ°": 2634,
      "-k": 2635,
      "(f": 2636,
      "IL": 2637,
      "Ġgikk": 2638,
      "ĠHvordan": 2639,
      "ĠdÃ¥r": 2640,
      "kast": 2641,
      "Ġtilbud": 2642,
      "deling": 2643,
      "Ġreturn": 2644,
      "sted": 2645,
      "Ġbetyr": 2646,
      "Ġutford": 2647,
      "Ġbilder": 2648,
      "ĠGje": 2649,
      "andre": 2650,
      "Ġdesse": 2651,
      "Ġmill": 2652,
      "iller": 2653,
      "Ġlese": 2654,
      "Ġfortsatt": 2655,
      "ĠnÃ¦": 2656,
      "tional": 2657,
      "ngde": 2658,
      "Ġtradi": 2659,
      "Ġoper": 2660,
      "Ġlage": 2661,
      "spill": 2662,
      "ĠÃ©": 2663,
      "ĠlÃ¸pet": 2664,
      "esp": 2665,
      ";Ċ": 2666,
      "Ġsma": 2667,
      "Ġdef": 2668,
      "Ġimport": 2669,
      "Ġsje": 2670,
      "sson": 2671,
      "ĠsjÃ¥": 2672,
      "ðŁ": 2673,
      "ĠNo": 2674,
      "vin": 2675,
      "cation": 2676,
      "ĠÃħr": 2677,
      "Ġfl": 2678,
      "fÃ¸rer": 2679,
      "Ġbehand": 2680,
      "linger": 2681,
      "ydelig": 2682,
      "dagen": 2683,
      "Ġspiller": 2684,
      "Ġsju": 2685,
      "gjÃ¸r": 2686,
      "vern": 2687,
      "Ġbland": 2688,
      "Ġvur": 2689,
      "derer": 2690,
      "tatt": 2691,
      "anuar": 2692,
      "ilig": 2693,
      "Ġtekni": 2694,
      "!!": 2695,
      "Ġblei": 2696,
      "ĠNorsk": 2697,
      "Ġprosjekt": 2698,
      "Ġsat": 2699,
      "ober": 2700,
      "Ġrette": 2701,
      "ĠBa": 2702,
      "Ġdelt": 2703,
      "Ġperfe": 2704,
      "Ġligg": 2705,
      "rÃŃ": 2706,
      ",-": 2707,
      "erer": 2708,
      "ĠDisse": 2709,
      "Ġmenneske": 2710,
      "Ġprodukter": 2711,
      "Ġleder": 2712,
      "Ġpaa": 2713,
      "ĠmeÃ°": 2714,
      "jde": 2715,
      "Ġlikevel": 2716,
      "sini": 2717,
      "ĠHun": 2718,
      "Ġfylke": 2719,
      "rings": 2720,
      "Ġseier": 2721,
      "ĠQ": 2722,
      "stru": 2723,
      "Ġdefi": 2724,
      "kasjon": 2725,
      "Ã¦rer": 2726,
      "Ġinnt": 2727,
      "ruktur": 2728,
      "-t": 2729,
      "Ġokt": 2730,
      "...Ċ": 2731,
      "Ġfunger": 2732,
      "ĠaltsÃ¥": 2733,
      "ĠPr": 2734,
      "Ġbran": 2735,
      "naden": 2736,
      "Ġkommuni": 2737,
      "ĠfÃ¸le": 2738,
      "ferd": 2739,
      "vs": 2740,
      "ĠHvor": 2741,
      "Ġvalg": 2742,
      "Ġfeil": 2743,
      "ator": 2744,
      "ĠKommu": 2745,
      "ĠpÃ¥vir": 2746,
      "Ġstudent": 2747,
      "Ġthis": 2748,
      "ful": 2749,
      "Ġande": 2750,
      "Ġvirkelig": 2751,
      "ĠTi": 2752,
      "ĠLu": 2753,
      "pu": 2754,
      "uelt": 2755,
      "ita": 2756,
      "ĠOver": 2757,
      "Ġlokale": 2758,
      "Ġstra": 2759,
      "Ġbarneha": 2760,
      "Ġbre": 2761,
      "que": 2762,
      "ĠMange": 2763,
      "Ġaug": 2764,
      "kont": 2765,
      "ED": 2766,
      "):": 2767,
      "Ġheile": 2768,
      "yt": 2769,
      "anter": 2770,
      "ĠprÃ¸ve": 2771,
      "Ġmitt": 2772,
      "Ġetab": 2773,
      "ĠSelv": 2774,
      "Ġhtt": 2775,
      "Ġnumber": 2776,
      "ppet": 2777,
      "Ġresultat": 2778,
      "ĠGra": 2779,
      "star": 2780,
      "Ġsatt": 2781,
      "ĠvÃ": 2782,
      "ona": 2783,
      "Ã¸rende": 2784,
      "ova": 2785,
      "Ġtot": 2786,
      "Ġkombi": 2787,
      "Ġslike": 2788,
      "mail": 2789,
      "Ġteg": 2790,
      "self": 2791,
      "mat": 2792,
      "tide": 2793,
      "ateg": 2794,
      "Ġregel": 2795,
      "ytt": 2796,
      "sopp": 2797,
      "Ġskje": 2798,
      "Ġsku": 2799,
      "nÃ": 2800,
      "gift": 2801,
      "low": 2802,
      "Ã¸ren": 2803,
      "ĠBergen": 2804,
      "Ġbal": 2805,
      "Ġmini": 2806,
      "Ġtimer": 2807,
      "Ġdeler": 2808,
      "legging": 2809,
      "AL": 2810,
      "Er": 2811,
      "ngre": 2812,
      "midlertid": 2813,
      "ĠnivÃ¥": 2814,
      "Ġlege": 2815,
      "Ġverk": 2816,
      "Ġslag": 2817,
      "Ġinternasjon": 2818,
      "Ġvare": 2819,
      "ĠLand": 2820,
      "ĠGu": 2821,
      "hver": 2822,
      "Ġvind": 2823,
      "handling": 2824,
      "yst": 2825,
      "Ġbegge": 2826,
      "gjer": 2827,
      "Ġ->": 2828,
      "stÃ¥r": 2829,
      "stÃ¸": 2830,
      "Ã¥ret": 2831,
      "ssa": 2832,
      "____": 2833,
      "hald": 2834,
      "tivt": 2835,
      "Ġhalv": 2836,
      "Ġban": 2837,
      "Ġhistori": 2838,
      "kle": 2839,
      "rier": 2840,
      "Ġnesten": 2841,
      "Ġlin": 2842,
      "ftig": 2843,
      "Ġfokus": 2844,
      "vo": 2845,
      "Ġopply": 2846,
      "ssy": 2847,
      "uten": 2848,
      "Ġ##": 2849,
      "Ġkm": 2850,
      "ftet": 2851,
      "Ġger": 2852,
      "ĠAndre": 2853,
      "ringa": 2854,
      "Ġklart": 2855,
      "ES": 2856,
      "Ġwas": 2857,
      "ĠPar": 2858,
      "ĠPa": 2859,
      "Ġfolke": 2860,
      "verket": 2861,
      "ĠMari": 2862,
      "fu": 2863,
      "ĠKristi": 2864,
      "ĠHu": 2865,
      "Ġvores": 2866,
      "ĠnÃ¥g": 2867,
      "Ġmenn": 2868,
      "nÃ¥": 2869,
      "Ġcm": 2870,
      "Ġstrat": 2871,
      "ras": 2872,
      "ĠGod": 2873,
      "Ġklo": 2874,
      "Ġdit": 2875,
      "ktive": 2876,
      "Ġkraft": 2877,
      "Ã³g": 2878,
      "ĠhÃ¸g": 2879,
      "ninga": 2880,
      "nskap": 2881,
      "nnem": 2882,
      "ount": 2883,
      "pÃ": 2884,
      "Ġsynes": 2885,
      "Ġtilgang": 2886,
      "ĠTy": 2887,
      "yld": 2888,
      "Ġdermed": 2889,
      "Ġvanskelig": 2890,
      "ĠRu": 2891,
      "stei": 2892,
      "Ġpraksi": 2893,
      "ptember": 2894,
      "vember": 2895,
      "Â».": 2896,
      "orit": 2897,
      "kring": 2898,
      "Ġbred": 2899,
      "ssig": 2900,
      "Ġlog": 2901,
      "ĠCo": 2902,
      "Ġfall": 2903,
      "pÃ¥": 2904,
      "Ġsit": 2905,
      "Ġwhi": 2906,
      "nding": 2907,
      "Ġfyrir": 2908,
      "ph": 2909,
      "Ġnev": 2910,
      "menn": 2911,
      "Ã³r": 2912,
      "Ġlik": 2913,
      "Ġur": 2914,
      "hengig": 2915,
      "sar": 2916,
      "Ġidenti": 2917,
      "Ġansatte": 2918,
      "Ġak": 2919,
      "ball": 2920,
      "ets": 2921,
      "ĠEU": 2922,
      "Ġinsp": 2923,
      ").ĊĊ": 2924,
      "ĠTro": 2925,
      "mÃ": 2926,
      "skape": 2927,
      "nnende": 2928,
      "alet": 2929,
      "velser": 2930,
      "Ġpenger": 2931,
      "Ġvekt": 2932,
      "ĠNorges": 2933,
      "ĠsprÃ¥k": 2934,
      "Ġkamp": 2935,
      "ĠBu": 2936,
      "Ġriktig": 2937,
      "talen": 2938,
      "olt": 2939,
      "Ġfirst": 2940,
      "ĠHel": 2941,
      "ĠomrÃ¥de": 2942,
      "Ġste": 2943,
      "fil": 2944,
      "Ġsyke": 2945,
      "Ġminutter": 2946,
      "Ġlokal": 2947,
      "Ġeksp": 2948,
      "igur": 2949,
      "rÃ¶": 2950,
      "Ġvarme": 2951,
      "skaper": 2952,
      "Ġheim": 2953,
      "heder": 2954,
      "Ġsta": 2955,
      "snitt": 2956,
      "ette": 2957,
      "ktene": 2958,
      "Ġtest": 2959,
      "ĠvÃ¦l": 2960,
      "ĠIkke": 2961,
      "che": 2962,
      "Â»,": 2963,
      "anne": 2964,
      "ĠÃŀ": 2965,
      "Ãħ": 2966,
      "Ġspel": 2967,
      "ĠfÃ¸lgende": 2968,
      "Ġskade": 2969,
      "Ġtred": 2970,
      "ĠReg": 2971,
      "iet": 2972,
      "Ġokk": 2973,
      "Ġfiske": 2974,
      "ĠvÃ¥": 2975,
      "saker": 2976,
      "ana": 2977,
      "lassen": 2978,
      "Ġkvinner": 2979,
      "Ġpote": 2980,
      "cept": 2981,
      "-post": 2982,
      "Ġutdanning": 2983,
      "ĠRom": 2984,
      "ĠforsÃ¸": 2985,
      "Ġvelge": 2986,
      "Äį": 2987,
      "my": 2988,
      "mert": 2989,
      "oni": 2990,
      "Ġslutt": 2991,
      "book": 2992,
      "vens": 2993,
      "Ġstu": 2994,
      "rÃ³": 2995,
      "pril": 2996,
      "ose": 2997,
      "Ġwh": 2998,
      "emi": 2999,
      "Ġsystem": 3000,
      "Ġkommentar": 3001,
      "Ġjanuar": 3002,
      "Ġpasser": 3003,
      "Ġsak": 3004,
      "Ġfint": 3005,
      "unktet": 3006,
      "Ġregion": 3007,
      "ĠFj": 3008,
      "ĠSol": 3009,
      "arbeidet": 3010,
      "Ġoppga": 3011,
      "ĠĠĠĠĠ": 3012,
      "stiske": 3013,
      "ĠFÃ¸roy": 3014,
      "gle": 3015,
      "nsk": 3016,
      "ĠGo": 3017,
      "Ġbere": 3018,
      "Ġende": 3019,
      "gifter": 3020,
      "vem": 3021,
      "Ġmars": 3022,
      "Ġutfor": 3023,
      "ĠlÃ¸y": 3024,
      "Ġseptember": 3025,
      "ĠMer": 3026,
      "fir": 3027,
      "ndag": 3028,
      "malt": 3029,
      "ĠfÃ¸d": 3030,
      "slaget": 3031,
      "orter": 3032,
      "legget": 3033,
      "Ġlegg": 3034,
      "Ġkur": 3035,
      "Ġdom": 3036,
      "ĠGru": 3037,
      "ĠTor": 3038,
      "Ġbarna": 3039,
      "Ġvite": 3040,
      "tiden": 3041,
      "ĠCasino": 3042,
      "Ġbeskri": 3043,
      "skra": 3044,
      "Ġegne": 3045,
      "IS": 3046,
      "kelse": 3047,
      "Ġmel": 3048,
      "ĠnÃ¤r": 3049,
      "ĠÂ·": 3050,
      "ĠnÃ½": 3051,
      "als": 3052,
      "vide": 3053,
      "Ġadmini": 3054,
      "anti": 3055,
      "fÃ¸res": 3056,
      "ĠCom": 3057,
      "ĠÃ³": 3058,
      "Ġtrygg": 3059,
      "Ġstadig": 3060,
      "Ġforbindelse": 3061,
      "Ġmeter": 3062,
      "ĠkjÃ¸pe": 3063,
      "tar": 3064,
      "kj": 3065,
      "landet": 3066,
      "Ġbetyd": 3067,
      "jerne": 3068,
      "pla": 3069,
      "Ġautom": 3070,
      "ĠThis": 3071,
      "Ã¸ya": 3072,
      "rom": 3073,
      "asjonen": 3074,
      "ĠbesÃ¸": 3075,
      "kkelig": 3076,
      "ĠNoreg": 3077,
      "Ġbarnet": 3078,
      "Error": 3079,
      "ĠVal": 3080,
      "Ġtom": 3081,
      "Ġmann": 3082,
      "heit": 3083,
      "ĠVil": 3084,
      "Ġeina": 3085,
      "els": 3086,
      "Ġutgang": 3087,
      "setning": 3088,
      "verr": 3089,
      "ĠhÃ¥r": 3090,
      "ĠHei": 3091,
      "band": 3092,
      "ĠdÃ¤r": 3093,
      "kÃ¥r": 3094,
      "Ġgodkje": 3095,
      "Ġendre": 3096,
      "mÃ¥": 3097,
      "cket": 3098,
      "ĠSpe": 3099,
      "ilte": 3100,
      "ĠTu": 3101,
      "Ġhandling": 3102,
      "viteter": 3103,
      "sjonene": 3104,
      "Ġhvilke": 3105,
      "uden": 3106,
      "ĠÃ¡r": 3107,
      "versitet": 3108,
      "Ġstedet": 3109,
      "Ġkontroll": 3110,
      "Ġsykdom": 3111,
      "ĠsÃ¦": 3112,
      "ksjoner": 3113,
      "ming": 3114,
      "cent": 3115,
      "ID": 3116,
      "Ġgro": 3117,
      "sessen": 3118,
      "Ġretning": 3119,
      "Ġalvor": 3120,
      "ĠCon": 3121,
      "ĠvÃ¤": 3122,
      "sav": 3123,
      "vÃ¦": 3124,
      "ura": 3125,
      "drett": 3126,
      "behandling": 3127,
      "ated": 3128,
      "Ġtilgjengelig": 3129,
      "ĠNi": 3130,
      "Ġoktober": 3131,
      "Ġos": 3132,
      "ĠhÃ¶": 3133,
      "lega": 3134,
      "Ġspeci": 3135,
      "Ġout": 3136,
      "Ġtype": 3137,
      "ĠVar": 3138,
      "ging": 3139,
      "Ġvise": 3140,
      "anen": 3141,
      "Ġeisini": 3142,
      "dde": 3143,
      "staur": 3144,
      "Ġforbed": 3145,
      "kkurat": 3146,
      "ĠÃ¥rs": 3147,
      "Ġheilt": 3148,
      "bart": 3149,
      "Ġhund": 3150,
      "ew": 3151,
      "Ġvara": 3152,
      "Ġplas": 3153,
      "fag": 3154,
      "Ġdetal": 3155,
      "_d": 3156,
      "Ġindivid": 3157,
      "oto": 3158,
      "Ġrelev": 3159,
      "ĠSer": 3160,
      "ctor": 3161,
      "ato": 3162,
      "kende": 3163,
      "Ġkroppen": 3164,
      "Ġimidlertid": 3165,
      "Ġbasert": 3166,
      "Ã¸yd": 3167,
      "Ġteknologi": 3168,
      "leiÃ°": 3169,
      "kum": 3170,
      "ktÃ¸r": 3171,
      "olm": 3172,
      "Ġblod": 3173,
      "Ġvill": 3174,
      "vÃ¦re": 3175,
      "Ġparti": 3176,
      "ĠÃ¶ver": 3177,
      "skar": 3178,
      "bb": 3179,
      "huset": 3180,
      "rast": 3181,
      "Ġforskning": 3182,
      ".\"": 3183,
      "oll": 3184,
      "ĠUSA": 3185,
      "ulti": 3186,
      "Ġude": 3187,
      "Ġarbeids": 3188,
      "ĠfÃ¸lger": 3189,
      "ĠSÃ¸r": 3190,
      "peratur": 3191,
      "Ã¶l": 3192,
      "Ġsagt": 3193,
      "Ġkorleis": 3194,
      "ĠOp": 3195,
      "Ġven": 3196,
      "rÃº": 3197,
      "ric": 3198,
      "Ġeget": 3199,
      "Ġinkludert": 3200,
      "Ġkunder": 3201,
      "Ġlenger": 3202,
      "ĠmÃ¥ned": 3203,
      "Ġfinansi": 3204,
      "Ġbestemt": 3205,
      "Ġforeldr": 3206,
      "Ġmulighet": 3207,
      "Ġalder": 3208,
      "Ġkann": 3209,
      "odet": 3210,
      "Ġheld": 3211,
      "con": 3212,
      "ĠrÃ¦": 3213,
      "Ġtopp": 3214,
      "Ġmidt": 3215,
      "eks": 3216,
      "Ġstre": 3217,
      "Ã°iÃ°": 3218,
      "orer": 3219,
      "out": 3220,
      "mÃ¥l": 3221,
      "ĠVid": 3222,
      "ĠgÃ¥tt": 3223,
      "Ġkonsek": 3224,
      "ustri": 3225,
      "Ġfamilie": 3226,
      "melding": 3227,
      "aden": 3228,
      "ĠAlt": 3229,
      "ansett": 3230,
      "ĠArbeid": 3231,
      "ĠðŁ": 3232,
      "Ã¤tt": 3233,
      "Ġsenere": 3234,
      "oi": 3235,
      "Ġsub": 3236,
      "Ġblog": 3237,
      "Ġam": 3238,
      "Ġholder": 3239,
      "Ġella": 3240,
      "Ġalla": 3241,
      "Ġref": 3242,
      "valu": 3243,
      "Ã¡r": 3244,
      "Ġhav": 3245,
      "Ġhelst": 3246,
      "bruar": 3247,
      "ttende": 3248,
      "ĠNoen": 3249,
      "ight": 3250,
      "ĠDerfor": 3251,
      "Ġegent": 3252,
      "Ġrepresent": 3253,
      "wo": 3254,
      "Ġrig": 3255,
      "Ġeksi": 3256,
      "bÃ¸": 3257,
      "ĠDanmark": 3258,
      "ĠTid": 3259,
      "Ġsentra": 3260,
      "Ġgrund": 3261,
      "Ġinstitu": 3262,
      "Ġim": 3263,
      "Ġdesign": 3264,
      "Ġkart": 3265,
      "ledes": 3266,
      "Ġrapp": 3267,
      "valget": 3268,
      "Ġbliver": 3269,
      "zz": 3270,
      "ksjonen": 3271,
      "Ġblom": 3272,
      "ĠlÃŃ": 3273,
      "ĠÃ¸kt": 3274,
      "likt": 3275,
      "stat": 3276,
      "ama": 3277,
      "Ġbyr": 3278,
      "Ã¤m": 3279,
      "way": 3280,
      "rer": 3281,
      "din": 3282,
      "seres": 3283,
      "igh": 3284,
      "Ġluft": 3285,
      "Ġhas": 3286,
      "Ġspilleautomater": 3287,
      "Ġmark": 3288,
      "Ġknyttet": 3289,
      "ĠopplÃ¦ring": 3290,
      "rep": 3291,
      "Ġyour": 3292,
      "ther": 3293,
      "ktivitet": 3294,
      "sven": 3295,
      "Ġskape": 3296,
      "Ġsikkerhet": 3297,
      "Ġforskel": 3298,
      "Ġmak": 3299,
      "skole": 3300,
      "Ġapril": 3301,
      "byr": 3302,
      "ordi": 3303,
      "rei": 3304,
      "Ġtrening": 3305,
      "Ġstille": 3306,
      "Ġnovember": 3307,
      "kla": 3308,
      "ĠÃ¸nske": 3309,
      "tallet": 3310,
      "Ġfla": 3311,
      "ĠTV": 3312,
      "bare": 3313,
      "kor": 3314,
      "Ġem": 3315,
      "kort": 3316,
      "Ġgong": 3317,
      "Ġklima": 3318,
      "kkes": 3319,
      "ktivt": 3320,
      "ĠskjÃ¸": 3321,
      "Ġsnart": 3322,
      "vering": 3323,
      "opa": 3324,
      "ĠÃºr": 3325,
      "ĠHÃ¸": 3326,
      "Ġinc": 3327,
      "ĠJes": 3328,
      "Ġmon": 3329,
      "Ġdess": 3330,
      "Ġbad": 3331,
      "niti": 3332,
      "Ġweb": 3333,
      "assa": 3334,
      "jerte": 3335,
      "AS": 3336,
      "Ġanbefa": 3337,
      "rette": 3338,
      "Ġpeng": 3339,
      "Ġtilby": 3340,
      "Ġinnenfor": 3341,
      "mon": 3342,
      "ĠFe": 3343,
      "ĠhÃ¦": 3344,
      "Ġsommer": 3345,
      "sember": 3346,
      "oret": 3347,
      "ĠtÃ¡": 3348,
      "arane": 3349,
      "Ġmusikk": 3350,
      "ĠfÃ¡": 3351,
      "borg": 3352,
      "nale": 3353,
      "ĠHelse": 3354,
      "Ġinnte": 3355,
      "Ġtak": 3356,
      "ĠbestÃ¥r": 3357,
      "Ġkonkurran": 3358,
      "..Ċ": 3359,
      "Ġstudie": 3360,
      "):Ċ": 3361,
      "ĠSverige": 3362,
      "ĠKar": 3363,
      "Ġtap": 3364,
      "ĠFri": 3365,
      "Ġprivat": 3366,
      "Ġfilm": 3367,
      "io": 3368,
      "sty": 3369,
      "arten": 3370,
      "able": 3371,
      "rasjon": 3372,
      "ele": 3373,
      "kommen": 3374,
      "Ġdokument": 3375,
      "ĠsÃ¦rlig": 3376,
      "Ġtilpas": 3377,
      "sider": 3378,
      "ansk": 3379,
      "spo": 3380,
      "ĠtÃ¦": 3381,
      "omisk": 3382,
      "ĠFyl": 3383,
      "ĠtÃº": 3384,
      "Ġanti": 3385,
      "mann": 3386,
      "Ġlys": 3387,
      "Ġkol": 3388,
      "Ġhvilken": 3389,
      "Ġkara": 3390,
      "ĠInst": 3391,
      "Ġgjekk": 3392,
      "ĠÃ¸v": 3393,
      "meter": 3394,
      ".org": 3395,
      "âĢĻs": 3396,
      "Ġfinns": 3397,
      "Ġskriver": 3398,
      "Ġaft": 3399,
      "omrÃ¥det": 3400,
      "sund": 3401,
      "Ġmasse": 3402,
      "ope": 3403,
      "ĠslÃ": 3404,
      "ĠHov": 3405,
      "cess": 3406,
      "Ġfunksjon": 3407,
      "ĠslÃ¥": 3408,
      "fold": 3409,
      "cebook": 3410,
      "Ġtreng": 3411,
      "Ã¤ll": 3412,
      "Ġprosjektet": 3413,
      "tigt": 3414,
      "Ġsmi": 3415,
      "lasser": 3416,
      "Ġanbef": 3417,
      "lett": 3418,
      "ĠfÃ¦r": 3419,
      "Ġbry": 3420,
      "Ġaugust": 3421,
      "ĠĠĠĠĠĠ": 3422,
      "ban": 3423,
      "folk": 3424,
      "Ġjobber": 3425,
      "tom": 3426,
      "ments": 3427,
      "ĠÃģ": 3428,
      "sis": 3429,
      "ĠHotel": 3430,
      "ĠIngen": 3431,
      "sats": 3432,
      "ĠNone": 3433,
      "Ġyr": 3434,
      "Ġviktige": 3435,
      "Ġklub": 3436,
      "Ġflott": 3437,
      "Ġuke": 3438,
      "ĠverÃ°a": 3439,
      "Ġsei": 3440,
      "\":": 3441,
      "ĠMag": 3442,
      "lay": 3443,
      "Ġsla": 3444,
      "nnene": 3445,
      "Ġdisku": 3446,
      "Ġvist": 3447,
      "Ġvu": 3448,
      "Ġgul": 3449,
      "ndige": 3450,
      "abil": 3451,
      "kering": 3452,
      "Ġpraksis": 3453,
      "Ġkyr": 3454,
      "ĠtrÃ¦": 3455,
      "Ġpost": 3456,
      "ktÃ¸y": 3457,
      "ligen": 3458,
      "formasjon": 3459,
      "Ġantall": 3460,
      "Ġbye": 3461,
      "Ġup": 3462,
      "Ġhvilket": 3463,
      "aller": 3464,
      "---": 3465,
      "ĠSand": 3466,
      "Ġmand": 3467,
      "ĠEng": 3468,
      "ndom": 3469,
      "lane": 3470,
      "Ġhandler": 3471,
      "ĠTra": 3472,
      "ĠFinn": 3473,
      "ktion": 3474,
      "Ġbyen": 3475,
      "Ġbolig": 3476,
      "gin": 3477,
      "Ġfungerer": 3478,
      "Ġnokr": 3479,
      "Ġnokre": 3480,
      "Ġprot": 3481,
      "sikker": 3482,
      "Ġlige": 3483,
      "skin": 3484,
      "arde": 3485,
      "Ġfantastisk": 3486,
      "ĠgjennomfÃ¸rt": 3487,
      "Ġkurs": 3488,
      "ĠsjÃ¸": 3489,
      "Ġfine": 3490,
      "Ġmillioner": 3491,
      "Ã°ir": 3492,
      "ĠStud": 3493,
      "Ġmag": 3494,
      "lete": 3495,
      "ggj": 3496,
      "atert": 3497,
      "Ġforvalt": 3498,
      "ĠTre": 3499,
      "aland": 3500,
      "ĠEk": 3501,
      "ĠSÃ¸": 3502,
      "Ġstri": 3503,
      "enes": 3504,
      "Ġforr": 3505,
      "otell": 3506,
      "ĠJe": 3507,
      "Ġbuti": 3508,
      "sken": 3509,
      "ĠDag": 3510,
      "ĠsÃ¡": 3511,
      "ĠlÃ¦ring": 3512,
      "mmer": 3513,
      "Ġnega": 3514,
      "tioner": 3515,
      "holdet": 3516,
      "Ġforslag": 3517,
      "ĠFÃ¶r": 3518,
      "Ġakkurat": 3519,
      "Ġengel": 3520,
      "Ġhistorie": 3521,
      "Ġmerke": 3522,
      "Ġsek": 3523,
      "sikring": 3524,
      "Ġtelefon": 3525,
      "ĠnÃº": 3526,
      "pan": 3527,
      "kkelen": 3528,
      "fikk": 3529,
      "Det": 3530,
      "²g": 3531,
      "gÃ¥ende": 3532,
      "Ġvis": 3533,
      "vning": 3534,
      "ategori": 3535,
      "lÃ¤": 3536,
      "ĠDel": 3537,
      ".Â»": 3538,
      "ĠSvar": 3539,
      "Ê¹": 3540,
      "cep": 3541,
      "Ġmedlemmer": 3542,
      "kiÃ°": 3543,
      "Ġsven": 3544,
      "ĠRes": 3545,
      "urde": 3546,
      "ĠKli": 3547,
      "ĠJo": 3548,
      "Ġdagens": 3549,
      "drag": 3550,
      "Ġprodukt": 3551,
      "ĠÃ²g": 3552,
      "Ġomsorg": 3553,
      "stein": 3554,
      "ĠFran": 3555,
      "ĠtÃ¸": 3556,
      "Ġbetaling": 3557,
      "otek": 3558,
      "Ġeneste": 3559,
      "giver": 3560,
      "Ġtyp": 3561,
      "eltet": 3562,
      "Ġdep": 3563,
      "Ġhud": 3564,
      "Ġtredje": 3565,
      "Ġlegger": 3566,
      "ĠÃ¥rene": 3567,
      "Ġklassi": 3568,
      "Ġutstyr": 3569,
      "ĠMy": 3570,
      "iddel": 3571,
      "ĠhÃ¤r": 3572,
      "Ġservice": 3573,
      "Ġproduksjon": 3574,
      "ĠBjÃ¸r": 3575,
      "sg": 3576,
      "bal": 3577,
      "ĠKva": 3578,
      "Ġraskt": 3579,
      "taket": 3580,
      "OM": 3581,
      "Ġoli": 3582,
      "Ġsikkert": 3583,
      "Ġledd": 3584,
      "Ġinteg": 3585,
      "lom": 3586,
      "Ġhotel": 3587,
      "fla": 3588,
      "Ġsidan": 3589,
      "Ġkvart": 3590,
      "Ġregje": 3591,
      "Ġsalg": 3592,
      "edd": 3593,
      "Ġskil": 3594,
      "_c": 3595,
      "ĠKa": 3596,
      "Ġqu": 3597,
      "Ġkontrol": 3598,
      "ĠPu": 3599,
      "kro": 3600,
      "Ġ<": 3601,
      "ĠSj": 3602,
      "ĠlÃ¸nn": 3603,
      "Ġutvikle": 3604,
      "program": 3605,
      "xt": 3606,
      "ogn": 3607,
      "Ġproblemer": 3608,
      "Ġegentlig": 3609,
      "Ġdesember": 3610,
      "wi": 3611,
      "ĠKe": 3612,
      "Ġprofes": 3613,
      "sdag": 3614,
      "ĠMÃ": 3615,
      "lia": 3616,
      "Ġwhich": 3617,
      "bygging": 3618,
      "ĠVÃ¥r": 3619,
      "ĠFo": 3620,
      "stan": 3621,
      "rÃ¦": 3622,
      "Ġlyd": 3623,
      "Ġuden": 3624,
      "odd": 3625,
      "Ġarrange": 3626,
      "ĠĠĠĠĠĠĠ": 3627,
      "ÂŃ": 3628,
      "legare": 3629,
      "Ã¸ret": 3630,
      "fly": 3631,
      "Ġfebruar": 3632,
      "ĠmÃ¸ter": 3633,
      "Ġlager": 3634,
      "yen": 3635,
      "Ġmoderne": 3636,
      "Ġinneb": 3637,
      "Ġforre": 3638,
      "Ġglad": 3639,
      "Ġlar": 3640,
      "ĠFin": 3641,
      "orien": 3642,
      "ĠomrÃ¥der": 3643,
      "ĠSh": 3644,
      "kraft": 3645,
      "Ġfarge": 3646,
      "hÃ¥nd": 3647,
      "ografi": 3648,
      "Ġnyt": 3649,
      "svaret": 3650,
      "Ġforut": 3651,
      "Ġbek": 3652,
      "Ġstilling": 3653,
      "Ġhum": 3654,
      "ĠWi": 3655,
      "sjonar": 3656,
      "Ġsendt": 3657,
      "rike": 3658,
      "Ġvig": 3659,
      "ĠWe": 3660,
      "Ġbara": 3661,
      "ĠNew": 3662,
      "Ġtett": 3663,
      "Ġsve": 3664,
      "ĠsÃ¸ke": 3665,
      "Ġnaturlig": 3666,
      "merik": 3667,
      "Ġliker": 3668,
      "ellem": 3669,
      "Ġspillere": 3670,
      "Ġki": 3671,
      "utt": 3672,
      "uell": 3673,
      "Ġsaker": 3674,
      "Ġbonus": 3675,
      "Ġverdens": 3676,
      "Ġundir": 3677,
      "ĠCar": 3678,
      "ĠDÃ": 3679,
      "Ġjobbe": 3680,
      "Ġutro": 3681,
      "Ġenkel": 3682,
      "ous": 3683,
      "Ġskule": 3684,
      "ĠTaÃ°": 3685,
      "Ġlille": 3686,
      "Ġeur": 3687,
      "ĠJag": 3688,
      "Ġdistri": 3689,
      "Ġspennende": 3690,
      "hÃ¸": 3691,
      "Ġnam": 3692,
      "cial": 3693,
      "IT": 3694,
      "Ġhovud": 3695,
      "Ġfores": 3696,
      "Ġtilk": 3697,
      "ness": 3698,
      "setter": 3699,
      "Ġequ": 3700,
      "Ġpass": 3701,
      "Ġmodel": 3702,
      "Ġinveste": 3703,
      "sor": 3704,
      "Ġgrei": 3705,
      "Ġwill": 3706,
      "olog": 3707,
      "Ġytter": 3708,
      "ĠLy": 3709,
      "epartementet": 3710,
      "ogle": 3711,
      "skommu": 3712,
      "ĠhjÃ¦l": 3713,
      "Ġinde": 3714,
      "terer": 3715,
      "Ã¥te": 3716,
      "Ġrelati": 3717,
      "spunktet": 3718,
      "Ġvideo": 3719,
      "-d": 3720,
      "Ã¡tt": 3721,
      "ĠblÃ": 3722,
      "nivÃ¥": 3723,
      "ĠblÃ¥": 3724,
      "synet": 3725,
      "ham": 3726,
      "time": 3727,
      "Ġfunction": 3728,
      "Ġtjenester": 3729,
      "ĠFol": 3730,
      "lands": 3731,
      "smÃ¸te": 3732,
      "ĠStat": 3733,
      "ĠfÃ¸rer": 3734,
      "Ġeldre": 3735,
      "tai": 3736,
      "Ġnoget": 3737,
      "sjekt": 3738,
      "ĠvÃ¤l": 3739,
      "Ġtryg": 3740,
      "ĠTri": 3741,
      "ĠAnd": 3742,
      "Ġenten": 3743,
      "vist": 3744,
      "Ġstyrke": 3745,
      "Ġtransport": 3746,
      "Ġtann": 3747,
      "ella": 3748,
      "Ġkry": 3749,
      "lende": 3750,
      "Ġnavn": 3751,
      "Ġmobil": 3752,
      "user": 3753,
      "gangen": 3754,
      "ĠmÃ¶": 3755,
      "ĠSki": 3756,
      "Ġ>": 3757,
      "Ġspise": 3758,
      "ĠEller": 3759,
      "styret": 3760,
      "ĠÃ©n": 3761,
      "Ġkonta": 3762,
      "ydd": 3763,
      "Ġgennem": 3764,
      "ji": 3765,
      "md": 3766,
      "ĠveriÃ°": 3767,
      "========": 3768,
      "omrÃ¥de": 3769,
      "Ġperioden": 3770,
      "tag": 3771,
      "Ġspr": 3772,
      "ologisk": 3773,
      "Ġendring": 3774,
      "Ġemail": 3775,
      "nsjon": 3776,
      "ĠÃ¸y": 3777,
      "Ġjuli": 3778,
      "Ġseso": 3779,
      "cker": 3780,
      "ape": 3781,
      "ĠtÃ¸r": 3782,
      "Ġekte": 3783,
      "Ġgruppe": 3784,
      "Ġdele": 3785,
      "Ġbygd": 3786,
      "sess": 3787,
      "Ġsuper": 3788,
      "\".": 3789,
      "Ġdro": 3790,
      "Ġinvi": 3791,
      "cted": 3792,
      "lf": 3793,
      "skere": 3794,
      "ĠSlik": 3795,
      "ttene": 3796,
      "Ġrisiko": 3797,
      "Ġmore": 3798,
      "Ġrolle": 3799,
      "ĠkÃ¤": 3800,
      "Ġsvi": 3801,
      "Ġfav": 3802,
      "Ġstandard": 3803,
      "Ġskolen": 3804,
      "Ġkil": 3805,
      "ĠHÃ": 3806,
      "RA": 3807,
      "Ġsosiale": 3808,
      "Ġev": 3809,
      "Ġep": 3810,
      "Ã¦ld": 3811,
      "ĠGa": 3812,
      "talet": 3813,
      "samling": 3814,
      "Ġsende": 3815,
      "_p": 3816,
      "Ġbille": 3817,
      "Ġforskellige": 3818,
      "slin": 3819,
      "arch": 3820,
      "Ã°um": 3821,
      "Ġnettst": 3822,
      "sive": 3823,
      "Ġcal": 3824,
      "KT": 3825,
      "kkar": 3826,
      "bre": 3827,
      "ĠKj": 3828,
      "Ġtips": 3829,
      "Ġmyndig": 3830,
      "Ã³lk": 3831,
      "ĠmÃ¥ten": 3832,
      "Ġpriorit": 3833,
      "ĠOla": 3834,
      "udet": 3835,
      "sÃ¶": 3836,
      "ĠGjennom": 3837,
      "Ġinneholder": 3838,
      "Ġlyst": 3839,
      "fjord": 3840,
      "Ġmotta": 3841,
      "ĠNa": 3842,
      "ĠLÃ¸": 3843,
      "Ġvarer": 3844,
      "ĠKor": 3845,
      "Ġhvad": 3846,
      "Ġopti": 3847,
      "its": 3848,
      "vok": 3849,
      "ĠtrÃ¥d": 3850,
      "Ġnede": 3851,
      "Ġock": 3852,
      "veg": 3853,
      "ekom": 3854,
      "www": 3855,
      "Ġgiver": 3856,
      "Ġoversikt": 3857,
      "Ġkostnad": 3858,
      "Ġforn": 3859,
      "pping": 3860,
      "Ġeiend": 3861,
      "Ġgrunnlag": 3862,
      "ĠnÃ¸": 3863,
      "rift": 3864,
      "ĠDÃ¥": 3865,
      "sand": 3866,
      "Ġone": 3867,
      "Ġwww": 3868,
      "Ġtyper": 3869,
      "apir": 3870,
      "Ġhavde": 3871,
      "ĠhÃ¸yere": 3872,
      "plass": 3873,
      "ĠrÃ¸": 3874,
      "atisk": 3875,
      "ĠkjÃ¸p": 3876,
      "Ġradi": 3877,
      "Ġeffekt": 3878,
      "kant": 3879,
      "bor": 3880,
      "Ġlangs": 3881,
      "Ġfortel": 3882,
      "St": 3883,
      "ĠMat": 3884,
      "Ġinng": 3885,
      "Ġkjenner": 3886,
      "risk": 3887,
      "rodu": 3888,
      "mum": 3889,
      "Ġtey": 3890,
      "anisa": 3891,
      "ppene": 3892,
      "sliv": 3893,
      "OL": 3894,
      "varer": 3895,
      "tie": 3896,
      "ĠÃ¾e": 3897,
      "Ġrestaur": 3898,
      "Ġeiendom": 3899,
      "jÃ¸l": 3900,
      "ern": 3901,
      "ĠocksÃ¥": 3902,
      "ĠIs": 3903,
      "vate": 3904,
      "Ã°an": 3905,
      "ĠmÃ¥ne": 3906,
      "Ġuse": 3907,
      "Ã¶ra": 3908,
      "ĠProdu": 3909,
      "komst": 3910,
      "ots": 3911,
      "Ġutenfor": 3912,
      "ĠRegi": 3913,
      "Ġvurdere": 3914,
      "Ġvest": 3915,
      "Ġforvent": 3916,
      "file": 3917,
      "stikk": 3918,
      "ary": 3919,
      "ĊĊĊĊ": 3920,
      "Ġperfekt": 3921,
      "arin": 3922,
      "Ġpsyki": 3923,
      "ray": 3924,
      "own": 3925,
      "pte": 3926,
      "Ġkommet": 3927,
      "start": 3928,
      "ĠvÃ¦ret": 3929,
      "liv": 3930,
      "Ġhug": 3931,
      "Ġformid": 3932,
      "irektor": 3933,
      "Ġplant": 3934,
      "ĠrÃ": 3935,
      "Ġsammenlig": 3936,
      "\")ĊĊ": 3937,
      "ĠSc": 3938,
      "skab": 3939,
      "Ġkomple": 3940,
      "Ġoffentlig": 3941,
      "RE": 3942,
      "ela": 3943,
      "use": 3944,
      "ssu": 3945,
      "hy": 3946,
      "mptom": 3947,
      "Ġforan": 3948,
      "sva": 3949,
      "elÃ¸": 3950,
      "Ġinterv": 3951,
      ".eks": 3952,
      "Ġkna": 3953,
      "Ġmm": 3954,
      "ora": 3955,
      "Ġmog": 3956,
      "ĠbÃ¦re": 3957,
      "ĠTrond": 3958,
      "ĠAnt": 3959,
      "politi": 3960,
      "ĠanvÃ¤": 3961,
      "ĠHal": 3962,
      "ĠFred": 3963,
      "Ġomkring": 3964,
      "ativ": 3965,
      "eri": 3966,
      "urr": 3967,
      "kler": 3968,
      "unst": 3969,
      "kja": 3970,
      "ĠrÃ¥": 3971,
      "ĠSch": 3972,
      "riet": 3973,
      "Ġske": 3974,
      "Ġbudsje": 3975,
      "nke": 3976,
      "-A": 3977,
      "Ġtekst": 3978,
      "tifi": 3979,
      "dra": 3980,
      "Ġproje": 3981,
      "gra": 3982,
      "Ġderetter": 3983,
      "idd": 3984,
      "OS": 3985,
      "Ġvand": 3986,
      "svare": 3987,
      "stendig": 3988,
      "urdering": 3989,
      "gn": 3990,
      "sjen": 3991,
      "Ġkvinne": 3992,
      "ĠKo": 3993,
      "ĠHÃ¥": 3994,
      "kin": 3995,
      "ĠmÃ¸r": 3996,
      "nnelse": 3997,
      "fatt": 3998,
      "Ġglede": 3999,
      "Ġdiff": 4000,
      "ac": 4001,
      "Ġbetale": 4002,
      "hÃ¦": 4003,
      "skj": 4004,
      "Ġz": 4005,
      "ĠstrÃ¸m": 4006,
      "betaling": 4007,
      "Ġklare": 4008,
      "Ġinvol": 4009,
      "Ġvinter": 4010,
      "rue": 4011,
      "nnu": 4012,
      "mand": 4013,
      "Ġolje": 4014,
      "Ġskyld": 4015,
      "lte": 4016,
      "Ġkonf": 4017,
      "ĠLeg": 4018,
      "hal": 4019,
      "Ġlav": 4020,
      "she": 4021,
      "holm": 4022,
      "alen": 4023,
      "spil": 4024,
      "ĠdÃ¥rlig": 4025,
      "tteratur": 4026,
      "list": 4027,
      "sler": 4028,
      "lÃ¦g": 4029,
      "-i": 4030,
      "Ġbereg": 4031,
      "Ġcont": 4032,
      "ndar": 4033,
      "âĢĶ": 4034,
      "-f": 4035,
      "Ġforve": 4036,
      "kerne": 4037,
      "obb": 4038,
      "vei": 4039,
      "Ġsteder": 4040,
      "Ġtidlig": 4041,
      "Ġavslu": 4042,
      "Ġderi": 4043,
      "lifi": 4044,
      "Ġnogle": 4045,
      "Ġhjelper": 4046,
      "ĠTek": 4047,
      "ase": 4048,
      "Ġvo": 4049,
      "Ġfrivil": 4050,
      "SB": 4051,
      "ĠIt": 4052,
      "ĠGi": 4053,
      "©r": 4054,
      "ĠOn": 4055,
      "Ġdog": 4056,
      "alog": 4057,
      "onse": 4058,
      "anser": 4059,
      "Ġbetr": 4060,
      "Ġaktiviteter": 4061,
      "Ġpriser": 4062,
      "Ġregler": 4063,
      "orsdag": 4064,
      "Ġskog": 4065,
      "Ġhvorfor": 4066,
      "alitet": 4067,
      "Ġplu": 4068,
      "ulering": 4069,
      "Ġfro": 4070,
      "ĠSka": 4071,
      "IG": 4072,
      "Ġhenhold": 4073,
      "Ġaa": 4074,
      "Ġpunkt": 4075,
      "ĠmÃ¥neder": 4076,
      "Ġkrever": 4077,
      "Ġforteller": 4078,
      "ĠEle": 4079,
      "bro": 4080,
      "nsen": 4081,
      "ĠgÃ³": 4082,
      "nummer": 4083,
      "ĠMÃ¥": 4084,
      "rÃ¸d": 4085,
      "urin": 4086,
      "helse": 4087,
      "**ĊĊ": 4088,
      "ĠAnder": 4089,
      "Ġskrift": 4090,
      "Ġgjere": 4091,
      "ĠSig": 4092,
      "KK": 4093,
      "ĠÃ¸ye": 4094,
      "ĠSto": 4095,
      "Ġfoku": 4096,
      "ffi": 4097,
      "Ġavtale": 4098,
      "asje": 4099,
      "Ġtene": 4100,
      "ĠvÃŃ": 4101,
      "Ġsyste": 4102,
      "Ġ:)Ċ": 4103,
      "ugh": 4104,
      "peri": 4105,
      "ext": 4106,
      "Ġaut": 4107,
      "Ġsider": 4108,
      "ms": 4109,
      "Ġviktigste": 4110,
      "ĠgÃ¸r": 4111,
      "Ġgjen": 4112,
      "Ġfjell": 4113,
      "Å¾": 4114,
      "Ġbetydning": 4115,
      "ĠsÃ¸ker": 4116,
      "Ġelev": 4117,
      "Ġrapport": 4118,
      "Ġinden": 4119,
      "mor": 4120,
      "Ġblive": 4121,
      "ĠhÃ¸j": 4122,
      "Ġmidler": 4123,
      "Ġbakgrunn": 4124,
      "Ġmulti": 4125,
      "sper": 4126,
      "eres": 4127,
      "ĠOG": 4128,
      "sre": 4129,
      "danne": 4130,
      "leie": 4131,
      "ordet": 4132,
      "ĠHans": 4133,
      "Ġsamfu": 4134,
      "Ġadministra": 4135,
      "Ġveit": 4136,
      "Ġtheir": 4137,
      "Ġpol": 4138,
      "Ġsannsyn": 4139,
      "ĠdÃ¸d": 4140,
      "gert": 4141,
      "bon": 4142,
      "Ġil": 4143,
      "ĠKr": 4144,
      "Ġtakk": 4145,
      "ulle": 4146,
      "Ġsentrum": 4147,
      "fl": 4148,
      "Ġtv": 4149,
      "arden": 4150,
      "ĠHam": 4151,
      "sman": 4152,
      "Ġredusere": 4153,
      ".last": 4154,
      "smÃ¥let": 4155,
      "Ġkomp": 4156,
      "ĠEuropa": 4157,
      "Ġnemlig": 4158,
      "sagt": 4159,
      "Ġekki": 4160,
      "Ġhverandre": 4161,
      "Ġkontra": 4162,
      "ĠBli": 4163,
      "kede": 4164,
      "ngt": 4165,
      "Ġused": 4166,
      "Ġfile": 4167,
      "ngere": 4168,
      "ĠNO": 4169,
      "Ġskatte": 4170,
      "Ġforbru": 4171,
      "Ġent": 4172,
      "stoff": 4173,
      "verdi": 4174,
      "ĠPi": 4175,
      "bra": 4176,
      "Ġramme": 4177,
      "sens": 4178,
      "Ġmellem": 4179,
      "Ġvelger": 4180,
      "Ġgenom": 4181,
      "ĠÂ»": 4182,
      "Ġret": 4183,
      "ĠKu": 4184,
      "Ġpasient": 4185,
      "mens": 4186,
      "Ġvenner": 4187,
      "vur": 4188,
      "ĠÃ¸konomiske": 4189,
      "ĠFacebook": 4190,
      ".lastname": 4191,
      "Ãµ": 4192,
      "now": 4193,
      "ĠST": 4194,
      "asjoner": 4195,
      "log": 4196,
      "ffet": 4197,
      "Ġsex": 4198,
      "skolen": 4199,
      "ĠKjÃ¸": 4200,
      "jo": 4201,
      "eles": 4202,
      "Ġ`": 4203,
      "verre": 4204,
      "(self": 4205,
      "nnar": 4206,
      "speri": 4207,
      "jenester": 4208,
      "Ġbeve": 4209,
      "skr": 4210,
      "Ġglo": 4211,
      "?ĊĊ": 4212,
      "Ġsetter": 4213,
      "Ġobje": 4214,
      "Ġbag": 4215,
      "Ġtale": 4216,
      "wer": 4217,
      "Ġbur": 4218,
      "ations": 4219,
      "ils": 4220,
      "lack": 4221,
      "oko": 4222,
      "-T": 4223,
      "sjons": 4224,
      "Ġendringer": 4225,
      "hÃ": 4226,
      "Ġbetre": 4227,
      "LE": 4228,
      "nende": 4229,
      "Ġformu": 4230,
      "ĠDes": 4231,
      "Ġslags": 4232,
      "Ġusing": 4233,
      "Ġnav": 4234,
      "Ġtenke": 4235,
      "ĠĠĠĠĠĠĠĠĠ": 4236,
      "urer": 4237,
      "stillinger": 4238,
      "ĠÃ¤ven": 4239,
      "Ġtemperatur": 4240,
      "Ġsamlet": 4241,
      "miljÃ¸": 4242,
      "Ġhim": 4243,
      "gd": 4244,
      "Ġheil": 4245,
      "slÃ¸": 4246,
      "Ġburde": 4247,
      "rate": 4248,
      "nit": 4249,
      "fort": 4250,
      "sprogram": 4251,
      "ĠStr": 4252,
      "ĠfÃ¸ler": 4253,
      "ĠbÃ¶r": 4254,
      "anten": 4255,
      "Ġinteresse": 4256,
      "Ġelever": 4257,
      "RK": 4258,
      "ĠÃ¸ke": 4259,
      "Ġhuset": 4260,
      "Ã¦t": 4261,
      "Ġdiag": 4262,
      "ds": 4263,
      "Ġprivate": 4264,
      "perso": 4265,
      "Ġfakt": 4266,
      "Ġutvalg": 4267,
      "ider": 4268,
      "atens": 4269,
      "ĠMid": 4270,
      "arm": 4271,
      "ktiske": 4272,
      "Ġhensyn": 4273,
      "bundet": 4274,
      "hist": 4275,
      "Ġmogleg": 4276,
      "ould": 4277,
      "Ġtanke": 4278,
      "Ġjf": 4279,
      "--------------------------------": 4280,
      "Ġbidrar": 4281,
      "Ġrefer": 4282,
      "skjer": 4283,
      "ĠJan": 4284,
      "Ġandra": 4285,
      "edi": 4286,
      "nare": 4287,
      "Ġinformation": 4288,
      "Ġget": 4289,
      "batt": 4290,
      "ĠdrÃ¸": 4291,
      "Ġdagar": 4292,
      "cts": 4293,
      "cka": 4294,
      "ĠAll": 4295,
      "Ġinstru": 4296,
      "Ġutrolig": 4297,
      "fig": 4298,
      "yp": 4299,
      "Ġhygge": 4300,
      "Ġhvem": 4301,
      "Ġturen": 4302,
      "Ġsterk": 4303,
      "MS": 4304,
      "Ġetablert": 4305,
      "kkene": 4306,
      "tinget": 4307,
      "gruppe": 4308,
      "af": 4309,
      "Ġhennes": 4310,
      "slut": 4311,
      "Ġanlegg": 4312,
      "andid": 4313,
      "illa": 4314,
      "itale": 4315,
      "ĠKla": 4316,
      "olf": 4317,
      "ĠfÃ¶": 4318,
      "Ġamerik": 4319,
      "selig": 4320,
      "Ġhjerte": 4321,
      "Ġinnova": 4322,
      "Ġfirstname": 4323,
      "ĠnÃ¦rmere": 4324,
      "nsdag": 4325,
      "iter": 4326,
      "Ġforeldre": 4327,
      "irektoratet": 4328,
      "utvikling": 4329,
      "ĠkjÃ¦r": 4330,
      "Ġanmeld": 4331,
      "Ġlange": 4332,
      "ĠnÃ³g": 4333,
      "sins": 4334,
      "Ġsaken": 4335,
      "Ġori": 4336,
      "hÃ¥": 4337,
      "-e": 4338,
      "Ġaktuelle": 4339,
      "ĠrÃ¸d": 4340,
      "ĠBy": 4341,
      "Ġstati": 4342,
      "ĠnÃ¤": 4343,
      "Ġkommunikasjon": 4344,
      "ĠsÃ¸knad": 4345,
      "Ġinkluderer": 4346,
      "Ġalternativ": 4347,
      "Ġdaglig": 4348,
      "Ġmoti": 4349,
      "ĠInd": 4350,
      "ĠlÃ¶": 4351,
      "Ġstod": 4352,
      "bered": 4353,
      "ĠbesÃ¸k": 4354,
      "ĠKir": 4355,
      "ĠNett": 4356,
      "ĠRetur": 4357,
      "Ġbegynne": 4358,
      "Ġklasse": 4359,
      "Ġbesky": 4360,
      "rade": 4361,
      "Ġfredag": 4362,
      "Ġresten": 4363,
      "Ġsur": 4364,
      "ows": 4365,
      "asit": 4366,
      "ip": 4367,
      "merksom": 4368,
      "ĠunngÃ¥": 4369,
      "Ġlave": 4370,
      "Ġlive": 4371,
      "Ġhotellet": 4372,
      "Ġanbefale": 4373,
      "tiÃ°": 4374,
      "Ġbeslut": 4375,
      "Ġpresenter": 4376,
      "ĠlÃ¦rer": 4377,
      "Ġviste": 4378,
      "verd": 4379,
      "leik": 4380,
      "AG": 4381,
      "Ġcr": 4382,
      "Ġleverand": 4383,
      "ĠsnÃ¸": 4384,
      "Ġoffentlige": 4385,
      "Ġallt": 4386,
      "Â«": 4387,
      "Ġrus": 4388,
      "Ġrespe": 4389,
      "Ã¸n": 4390,
      "Ġkoma": 4391,
      "ĠfÃ¶re": 4392,
      "sad": 4393,
      "oth": 4394,
      "Ġgav": 4395,
      "kv": 4396,
      "ĠApp": 4397,
      "Ġseks": 4398,
      "ĠÃ¸konomisk": 4399,
      "Ġfant": 4400,
      "ĠfÃ¸rt": 4401,
      "Ã³n": 4402,
      "Ġfjor": 4403,
      "UN": 4404,
      "fÃ¸lgelig": 4405,
      "mÃ¦r": 4406,
      "\",Ċ": 4407,
      "hav": 4408,
      "Ġkob": 4409,
      "tir": 4410,
      "mis": 4411,
      "Ġpraktisk": 4412,
      "Ġmycket": 4413,
      "nr": 4414,
      "Ġbegynner": 4415,
      "ĠlÃ¸sning": 4416,
      "nds": 4417,
      "legge": 4418,
      "Ġbord": 4419,
      "Ġutve": 4420,
      "Ã¸rdag": 4421,
      "latt": 4422,
      "ĠÃ¥pen": 4423,
      "verse": 4424,
      "sjer": 4425,
      "middel": 4426,
      "ĠIf": 4427,
      "sia": 4428,
      "ĠSm": 4429,
      "fin": 4430,
      "Ġobser": 4431,
      "Ġlad": 4432,
      "ui": 4433,
      "Ġbedrift": 4434,
      "Ġment": 4435,
      "ĠgjÃ¸res": 4436,
      "Ġpasse": 4437,
      "ĠlÃ¸sninger": 4438,
      "ĠJesus": 4439,
      "Ġstyre": 4440,
      "bri": 4441,
      "()": 4442,
      "ĠfÃ¸roy": 4443,
      "sch": 4444,
      "kking": 4445,
      "lysninger": 4446,
      "Ġleng": 4447,
      "Ġvalgt": 4448,
      "ĠKra": 4449,
      "ktorer": 4450,
      "bund": 4451,
      "Ġfysisk": 4452,
      "yrer": 4453,
      "lue": 4454,
      "nede": 4455,
      "api": 4456,
      "ĠSamtidig": 4457,
      "Ġresul": 4458,
      "sbe": 4459,
      "ligi": 4460,
      "ittel": 4461,
      "liÃ°": 4462,
      "ĠLei": 4463,
      "Ġuansett": 4464,
      "Nor": 4465,
      "Ġteir": 4466,
      "ĠhÃ¸ye": 4467,
      "Ã°in": 4468,
      "Ġline": 4469,
      "ĠpopulÃ¦re": 4470,
      "ĠKvi": 4471,
      "Ġundervisning": 4472,
      "ĠOgsÃ¥": 4473,
      "Ġtwo": 4474,
      "ĠHol": 4475,
      "Ġstarter": 4476,
      "fen": 4477,
      "Ġavgj": 4478,
      "ĠsÃ¸ndag": 4479,
      "kkje": 4480,
      "Ġfry": 4481,
      "Ġindustri": 4482,
      "Ġinteress": 4483,
      "Ã¥rd": 4484,
      "spel": 4485,
      "litets": 4486,
      "Ġvedtak": 4487,
      "Ġfisk": 4488,
      "pene": 4489,
      "Ġforklar": 4490,
      "dalen": 4491,
      "heden": 4492,
      "ĠBruk": 4493,
      "ĠFar": 4494,
      "ies": 4495,
      "ory": 4496,
      "Ġstund": 4497,
      "ĠList": 4498,
      "okra": 4499,
      "Ġtol": 4500,
      "Ġoppmerksom": 4501,
      "ced": 4502,
      "ular": 4503,
      "ndene": 4504,
      "Ġkred": 4505,
      "Ġstrategi": 4506,
      "ĠJohan": 4507,
      "lerer": 4508,
      "sÃ³": 4509,
      "Ġvekst": 4510,
      "ssel": 4511,
      "ordning": 4512,
      "emp": 4513,
      "hjel": 4514,
      "seum": 4515,
      "ĠUm": 4516,
      "nnlig": 4517,
      "ologiske": 4518,
      "uni": 4519,
      "Ġflotte": 4520,
      "Ġorde": 4521,
      "fest": 4522,
      "Ġsky": 4523,
      "norsk": 4524,
      "ĠsÃ¶": 4525,
      "Ġart": 4526,
      "ĠSte": 4527,
      "velsen": 4528,
      "sjonelle": 4529,
      "lever": 4530,
      "ĠPlan": 4531,
      "go": 4532,
      "ative": 4533,
      "Ġkn": 4534,
      "AM": 4535,
      "arna": 4536,
      "ĠHau": 4537,
      "Ġtjeneste": 4538,
      ".S": 4539,
      "lser": 4540,
      "Ġinf": 4541,
      "sjektet": 4542,
      "Ġaftur": 4543,
      "Ġbut": 4544,
      "Ġlaga": 4545,
      "Ġarbeider": 4546,
      "ssige": 4547,
      "igheter": 4548,
      "Ġiniti": 4549,
      "Ġabo": 4550,
      "Ġfullt": 4551,
      "Ġvin": 4552,
      "Ġkolle": 4553,
      "Ġexcept": 4554,
      "Ġslo": 4555,
      "Ġsing": 4556,
      "Ġnyd": 4557,
      "ami": 4558,
      "ĠlÃ¥n": 4559,
      "Ġvoksne": 4560,
      "hetene": 4561,
      "mage": 4562,
      "ĠoppfÃ¸l": 4563,
      "Ã¸ring": 4564,
      "=\"": 4565,
      "Ġmuligheter": 4566,
      "Ġhttp": 4567,
      "enten": 4568,
      "Ġrefle": 4569,
      "smiljÃ¸": 4570,
      "Ġother": 4571,
      "Ġigen": 4572,
      "Ġfli": 4573,
      "ĠsÃ¥r": 4574,
      "Ġang": 4575,
      "Ġrese": 4576,
      "Ġskip": 4577,
      "siktig": 4578,
      "mine": 4579,
      "ĠMod": 4580,
      "Ġstartet": 4581,
      "ally": 4582,
      "Ġfamilien": 4583,
      "Ġkropp": 4584,
      "Ġforbedr": 4585,
      "anda": 4586,
      "vanger": 4587,
      "stud": 4588,
      "Ġcol": 4589,
      "ĠGre": 4590,
      "Ã¸rs": 4591,
      "tek": 4592,
      "ĠsjÃ¡l": 4593,
      "Ġsomm": 4594,
      "ĠIng": 4595,
      "Ġplane": 4596,
      "Ã¦Ã°i": 4597,
      "Ġrequ": 4598,
      "ĠÃ¥rets": 4599,
      "Ġinternasjonale": 4600,
      "Ġvikti": 4601,
      "Ġmedisin": 4602,
      "ndelser": 4603,
      "Ġspillet": 4604,
      "Ġtilfelle": 4605,
      "skont": 4606,
      "ĠvÃ¤r": 4607,
      "Ġsva": 4608,
      "Ġkonkret": 4609,
      "ĠGratis": 4610,
      "Ġenhver": 4611,
      "Ġfordel": 4612,
      "Ġjule": 4613,
      "Ġvedlike": 4614,
      "Ġren": 4615,
      "ĠĠĠĠĠĠĠĠĠĠĠĠĠĠĠĠĠĠĠĠ": 4616,
      "Ġnormalt": 4617,
      "mae": 4618,
      "singar": 4619,
      "Ġelektron": 4620,
      "Ġvalu": 4621,
      "rud": 4622,
      "han": 4623,
      "nnes": 4624,
      "onne": 4625,
      "Ġnew": 4626,
      "Ġsymptom": 4627,
      "ĠKn": 4628,
      "spar": 4629,
      "bane": 4630,
      "Ġmeste": 4631,
      "Ġbilen": 4632,
      "skot": 4633,
      "olde": 4634,
      "ĠFÃ": 4635,
      "ĠprÃ¸ver": 4636,
      "Ã¸rte": 4637,
      "ĠverktÃ¸y": 4638,
      "Ġgera": 4639,
      "Ġhttps": 4640,
      "deles": 4641,
      "Ġdelen": 4642,
      "melig": 4643,
      "Ġavhengig": 4644,
      "Ġabsol": 4645,
      "ash": 4646,
      "Ġanve": 4647,
      "tinu": 4648,
      "nstitu": 4649,
      "Ġpresent": 4650,
      "ĠII": 4651,
      "stilt": 4652,
      "Ġfinde": 4653,
      "bur": 4654,
      "Ġgran": 4655,
      "ec": 4656,
      "gÃ¥rd": 4657,
      "Ġsterkt": 4658,
      "ties": 4659,
      "sterende": 4660,
      "Ġarbejde": 4661,
      "Ġanbefaler": 4662,
      "Ġalene": 4663,
      "sida": 4664,
      "Ġsamband": 4665,
      "Ġavdeling": 4666,
      "lud": 4667,
      "ĠBil": 4668,
      "Ġinkl": 4669,
      "Ġbrukar": 4670,
      "gy": 4671,
      "Ġmarkede": 4672,
      "tige": 4673,
      "Ġgrupper": 4674,
      "Ġdigitale": 4675,
      "vÃ¦rende": 4676,
      "service": 4677,
      "bÃº": 4678,
      "Ġlengre": 4679,
      "Ġsikr": 4680,
      "Ġskjedd": 4681,
      "Ġforde": 4682,
      "nast": 4683,
      "Ġressur": 4684,
      "Ġmarkedet": 4685,
      "ĠmÃ¦": 4686,
      "ĠMin": 4687,
      "Ġfing": 4688,
      "asite": 4689,
      "Ã³ru": 4690,
      "Ġsamfunnet": 4691,
      "Ġbevis": 4692,
      "Ġvat": 4693,
      "Ġengelsk": 4694,
      "jan": 4695,
      "cc": 4696,
      "Ġmorgen": 4697,
      "Ġlet": 4698,
      "Ġfart": 4699,
      "ĠfÃ¡a": 4700,
      "Ġsosial": 4701,
      "SK": 4702,
      "Ġutgangspunkt": 4703,
      "Ġidentifi": 4704,
      "Ġhes": 4705,
      "Ġcor": 4706,
      "grep": 4707,
      "Ġenkle": 4708,
      "Ġlidt": 4709,
      "Ġtilfeller": 4710,
      "skapen": 4711,
      "Ġpersonlig": 4712,
      "Ġforbedre": 4713,
      "Ġdrikke": 4714,
      "Ġuav": 4715,
      "Ġareal": 4716,
      "ĠIN": 4717,
      "slivet": 4718,
      "gave": 4719,
      "Ġopprett": 4720,
      "ĠBest": 4721,
      "ĠbelÃ¸": 4722,
      "mende": 4723,
      "Ġmedan": 4724,
      "Ġannan": 4725,
      "Ġidrett": 4726,
      "ĠFOR": 4727,
      "Ġsitter": 4728,
      "ĠPost": 4729,
      "ĠhÃ¥per": 4730,
      "Ġfavori": 4731,
      "viÃ°": 4732,
      "Ġpotensi": 4733,
      "-a": 4734,
      "kkert": 4735,
      "Ġinspir": 4736,
      "Ġinnhold": 4737,
      "forsk": 4738,
      "ĠÃ¾vÃŃ": 4739,
      "ĠBeg": 4740,
      "orld": 4741,
      "Ġhandel": 4742,
      "Ġbild": 4743,
      "aga": 4744,
      "Ġpoeng": 4745,
      "somt": 4746,
      "fol": 4747,
      "Ġtydelig": 4748,
      "ĠhÃ¸yt": 4749,
      "Ġ\"\"\"": 4750,
      "elde": 4751,
      "ĠVis": 4752,
      "Ġnettet": 4753,
      "Ġvente": 4754,
      "kert": 4755,
      "Ġuker": 4756,
      "Ġtida": 4757,
      "Ġevalu": 4758,
      "Ġbibli": 4759,
      "Ġcre": 4760,
      "Ġfas": 4761,
      "AV": 4762,
      "matisk": 4763,
      "ania": 4764,
      "smini": 4765,
      "tas": 4766,
      "Ġperiode": 4767,
      "ĠâĢ¦": 4768,
      "ĠTrondheim": 4769,
      "Ġvad": 4770,
      ".p": 4771,
      "ĠKont": 4772,
      "ĠVa": 4773,
      "ĠKÃ¸": 4774,
      "ĠstÃ¸rrelse": 4775,
      "nia": 4776,
      "Ġbrug": 4777,
      "Ġvita": 4778,
      "ĠsÃ¥nn": 4779,
      "merte": 4780,
      "atene": 4781,
      "Ġveien": 4782,
      "Ġsand": 4783,
      "Ġnasjonale": 4784,
      "ĠvarÃ°": 4785,
      "Ġpoint": 4786,
      "Ġeffektiv": 4787,
      "---|": 4788,
      "Ġfest": 4789,
      "gitt": 4790,
      "terte": 4791,
      "Ġgenerelt": 4792,
      "Ġferie": 4793,
      "Ġkaffe": 4794,
      "jenesten": 4795,
      "Ġstruktur": 4796,
      "Ġfylkeskommu": 4797,
      "jeneste": 4798,
      "riske": 4799,
      "Ġing": 4800,
      "Ġap": 4801,
      "jÃ¶": 4802,
      "ĠformÃ¥l": 4803,
      "Ġpositive": 4804,
      "Ġresultater": 4805,
      "nas": 4806,
      "system": 4807,
      "Ġtotal": 4808,
      "date": 4809,
      "Ġ;": 4810,
      "Slett": 4811,
      "Ġselskap": 4812,
      "ĠÃ¸nsket": 4813,
      "-Ã": 4814,
      "ĠTer": 4815,
      "Ġosv": 4816,
      "Ġsamsvar": 4817,
      "ĠĠĠĠĠĠĠĠĠĠ": 4818,
      ".ĊĊĊĊ": 4819,
      "ĠFylke": 4820,
      "Ġeigen": 4821,
      "Ġslutten": 4822,
      "Ġsport": 4823,
      "Ġnokon": 4824,
      "sir": 4825,
      "-r": 4826,
      "ĠÃ¥t": 4827,
      "Ġtilkny": 4828,
      "try": 4829,
      "Ġner": 4830,
      "ĠÐ": 4831,
      "ĠvilkÃ¥r": 4832,
      "ĠÃ¾aÃ°": 4833,
      "Ġlea": 4834,
      "dager": 4835,
      "ĠoppnÃ¥": 4836,
      "Ġskriv": 4837,
      "ĠprÃ¦": 4838,
      "ration": 4839,
      "ilu": 4840,
      "sende": 4841,
      "lÃ¸p": 4842,
      "illi": 4843,
      "Ġnatt": 4844,
      "ĠMÃ¥l": 4845,
      "Ġkjempe": 4846,
      "Ġforsvar": 4847,
      "koh": 4848,
      "fram": 4849,
      "ĠdÃ¸de": 4850,
      "ĠKontakt": 4851,
      "vera": 4852,
      "Ġbarnehage": 4853,
      "Ġnet": 4854,
      "Ġinnskudd": 4855,
      "gaver": 4856,
      "Ġjust": 4857,
      "ĠgÃ¸re": 4858,
      "havn": 4859,
      "Ġgive": 4860,
      "rinn": 4861,
      "Ġring": 4862,
      "ĠLike": 4863,
      "aldt": 4864,
      "ĠRed": 4865,
      "Ġcir": 4866,
      "ktoren": 4867,
      "skrifter": 4868,
      "ula": 4869,
      "ĠVit": 4870,
      "keren": 4871,
      "ssen": 4872,
      "ĠFÃ¸l": 4873,
      "ander": 4874,
      "asitet": 4875,
      "Ġfunnet": 4876,
      "ĠChristi": 4877,
      "nev": 4878,
      "vind": 4879,
      "Ġhem": 4880,
      "Ġopplever": 4881,
      "fur": 4882,
      "fun": 4883,
      "Ġkirke": 4884,
      "Ġhuden": 4885,
      "edlem": 4886,
      "Ġboka": 4887,
      "Ġnyde": 4888,
      "Ġyt": 4889,
      "bord": 4890,
      "amma": 4891,
      "ĠHen": 4892,
      "Ġsnakke": 4893,
      "ĠPh": 4894,
      "maet": 4895,
      "Ġprofesj": 4896,
      "Ġrelativt": 4897,
      "Ġakse": 4898,
      "Ġky": 4899,
      "Ġfru": 4900,
      "Ġlevering": 4901,
      "Ġtoppen": 4902,
      "grupper": 4903,
      "ĠrÃ¸y": 4904,
      "rene": 4905,
      "ĠPre": 4906,
      "Ġbygget": 4907,
      "-tallet": 4908,
      "Ġvirksomhet": 4909,
      "Ġinnbyg": 4910,
      "ntak": 4911,
      "Ġskrevet": 4912,
      "ada": 4913,
      "loven": 4914,
      "Ġtidlegare": 4915,
      "ĠVeg": 4916,
      "Ġappli": 4917,
      "arder": 4918,
      "ĠSÃ¸k": 4919,
      "Ġkasino": 4920,
      "ĠÃĺst": 4921,
      "ĠKri": 4922,
      "-se": 4923,
      "iteter": 4924,
      "Ġbekym": 4925,
      "Ġ|ĊĊ": 4926,
      "Ã¶d": 4927,
      "ĠlÃ¥g": 4928,
      "orn": 4929,
      "ĠmÃ¸t": 4930,
      "Ġtilst": 4931,
      "Ġhard": 4932,
      "tro": 4933,
      "ĠFjord": 4934,
      "grei": 4935,
      "ĠGoogle": 4936,
      "cke": 4937,
      "Ġalso": 4938,
      "Ġfred": 4939,
      "Ġtas": 4940,
      "Ġry": 4941,
      "ekt": 4942,
      "_i": 4943,
      "TE": 4944,
      "Ġvises": 4945,
      "ligvis": 4946,
      "sdal": 4947,
      "Ġdam": 4948,
      "ĠUd": 4949,
      "ĠDere": 4950,
      "ĠSkal": 4951,
      "-,": 4952,
      "Ġeier": 4953,
      "Ġvenstre": 4954,
      "Ġnytte": 4955,
      "sreg": 4956,
      "Ġfree": 4957,
      "stin": 4958,
      "Ġmaski": 4959,
      "imum": 4960,
      "ĠArgs": 4961,
      "ager": 4962,
      "vers": 4963,
      "Ġnasjonal": 4964,
      "sÃ¤tt": 4965,
      "Ġstk": 4966,
      "Ġ...": 4967,
      "Ġrevi": 4968,
      "tine": 4969,
      "Ġkome": 4970,
      "-Ã¥": 4971,
      "Ġmun": 4972,
      "levelse": 4973,
      "Ġdanske": 4974,
      "cle": 4975,
      "ĠJon": 4976,
      "tida": 4977,
      "Ġattra": 4978,
      "jast": 4979,
      "Ġfund": 4980,
      "Ġlavere": 4981,
      "lini": 4982,
      "Ġellers": 4983,
      "nce": 4984,
      "lÃ¡": 4985,
      "ningene": 4986,
      "Ġkg": 4987,
      "Ġnettopp": 4988,
      "gerne": 4989,
      "ĠFrÃ¥": 4990,
      "Ġoverfor": 4991,
      "Ġselskapet": 4992,
      "Ġnature": 4993,
      "US": 4994,
      "Ġov": 4995,
      "salt": 4996,
      "atch": 4997,
      "Ġolika": 4998,
      "cs": 4999,
      "Ġjour": 5000,
      "Ġits": 5001,
      "casino": 5002,
      "ĠbÃ¸rn": 5003,
      "ĠÄ": 5004,
      "-S": 5005,
      "ĠKommune": 5006,
      "Ġjobben": 5007,
      "Ġinom": 5008,
      ".-": 5009,
      "Ġmuligheten": 5010,
      "Ġcalcu": 5011,
      "jing": 5012,
      "nÃ¦r": 5013,
      "lasse": 5014,
      "Ġarbejd": 5015,
      "tiet": 5016,
      "Ġthey": 5017,
      "ĠResult": 5018,
      "sky": 5019,
      "ĠNu": 5020,
      "Ġbom": 5021,
      "Ġparkering": 5022,
      "ÃŃÃ°": 5023,
      "Ġtor": 5024,
      "nsa": 5025,
      "sso": 5026,
      "Ġlevere": 5027,
      "sign": 5028,
      "Ġpolitiske": 5029,
      "Ġeksa": 5030,
      "Ġsist": 5031,
      "Ġinntil": 5032,
      "Ġoppdrag": 5033,
      "Ġmeiner": 5034,
      "ĠrÃ¡": 5035,
      "Ġvirker": 5036,
      "Ġkunna": 5037,
      "Ġimot": 5038,
      "lov": 5039,
      "Ġhetta": 5040,
      "Ġrepresenter": 5041,
      "Ġmillion": 5042,
      "ĠdÃ¸g": 5043,
      "Ġbrukte": 5044,
      "UR": 5045,
      "mester": 5046,
      "tast": 5047,
      "ĠSal": 5048,
      "ĠGrÃ¸": 5049,
      "mai": 5050,
      "kiv": 5051,
      "leiar": 5052,
      "Ġtyde": 5053,
      "enen": 5054,
      "gruppen": 5055,
      "oten": 5056,
      "ĠhÃ¸re": 5057,
      "Ġfler": 5058,
      "Ġoverra": 5059,
      "skriften": 5060,
      "................................................................": 5061,
      "ĠHand": 5062,
      "Ġfara": 5063,
      "Ġslikt": 5064,
      "Ġjul": 5065,
      "hl": 5066,
      "Ġexp": 5067,
      "Ġauka": 5068,
      "struktur": 5069,
      "ĠErik": 5070,
      "ĠAnne": 5071,
      "ĠReturns": 5072,
      "cks": 5073,
      "kam": 5074,
      "Ġdetta": 5075,
      "ĠYou": 5076,
      "Ġdec": 5077,
      "ĠOrd": 5078,
      "Ġspesiali": 5079,
      "Ġbegynte": 5080,
      "Ġdre": 5081,
      "-b": 5082,
      "sloven": 5083,
      "strat": 5084,
      "ĠinnebÃ¦rer": 5085,
      "Ġtotalt": 5086,
      "unkter": 5087,
      "Ġgli": 5088,
      "ree": 5089,
      "ĠBra": 5090,
      "skip": 5091,
      "smÃ": 5092,
      "Ġinntekt": 5093,
      "Ġaltid": 5094,
      "Ġseri": 5095,
      "klare": 5096,
      "leren": 5097,
      "ĠÃĸ": 5098,
      "ĠĠĠĠĠĠĠĠĠĠĠ": 5099,
      "ĠEnd": 5100,
      "lement": 5101,
      "smÃ¥": 5102,
      "Ġinto": 5103,
      "slÃ": 5104,
      "ĠPerson": 5105,
      "slÃ¥": 5106,
      "Ġnytta": 5107,
      "ĠUl": 5108,
      "Ġkommuner": 5109,
      "ĠselvfÃ¸lgelig": 5110,
      "Ġtenker": 5111,
      "ĠBro": 5112,
      "ĠNatur": 5113,
      "spÃ¸r": 5114,
      "tasjon": 5115,
      "Ġbedrifter": 5116,
      "Ġkonsekven": 5117,
      "redning": 5118,
      "ĠforÃ¥r": 5119,
      "ttu": 5120,
      "Ġgammel": 5121,
      "Ġsamla": 5122,
      "oo": 5123,
      "valitet": 5124,
      "RI": 5125,
      "Ġbetydelig": 5126,
      "Ġtit": 5127,
      ".m": 5128,
      "Vi": 5129,
      "Ġmatch": 5130,
      "Ġfjerne": 5131,
      "Ġbildet": 5132,
      "Ġelsker": 5133,
      "ĠFoto": 5134,
      "bod": 5135,
      "ygd": 5136,
      "Ġlist": 5137,
      "ĠEli": 5138,
      "nin": 5139,
      "Ġindre": 5140,
      "Ġretningslin": 5141,
      "Ġholdt": 5142,
      "orm": 5143,
      "Ġkonst": 5144,
      "former": 5145,
      "Ġregistrert": 5146,
      "ĠÃ¾ar": 5147,
      "prÃ¸": 5148,
      "Ġkonkurranse": 5149,
      "por": 5150,
      "ĠHoved": 5151,
      "Ã¸e": 5152,
      "isi": 5153,
      "Ġbegren": 5154,
      "Ġivare": 5155,
      "mÃ¦": 5156,
      "lÃ¸y": 5157,
      "agt": 5158,
      "ĠfornÃ¸yd": 5159,
      "ĠCa": 5160,
      "ĠLegg": 5161,
      "Ġfal": 5162,
      "Ġpolitisk": 5163,
      "ĠÃ¤n": 5164,
      "sbr": 5165,
      "Ġstrateg": 5166,
      "________": 5167,
      "ĠFort": 5168,
      "misk": 5169,
      "sfri": 5170,
      "ĠFil": 5171,
      "rut": 5172,
      "Ġpublikum": 5173,
      "atori": 5174,
      "svarende": 5175,
      "see": 5176,
      "Ġprinsi": 5177,
      "repr": 5178,
      "ĠStavanger": 5179,
      "ĠGro": 5180,
      "ĠEit": 5181,
      "ats": 5182,
      "Ġsterke": 5183,
      "EG": 5184,
      ".âĢĿ": 5185,
      "ĠkjÃ¸re": 5186,
      "ndir": 5187,
      "Ġregn": 5188,
      "anlegg": 5189,
      "Ġmening": 5190,
      "ĠhÃ¸ve": 5191,
      "lot": 5192,
      "ppar": 5193,
      "ĠHvil": 5194,
      "Ġredd": 5195,
      "Ġstyret": 5196,
      "Ġsukker": 5197,
      "ĠDo": 5198,
      "ĠgÃ¶r": 5199,
      "ĠtÃ¸rr": 5200,
      "ĠBet": 5201,
      "ĠSiden": 5202,
      "skon": 5203,
      "Ġanden": 5204,
      "messig": 5205,
      "Ġsmak": 5206,
      "kasjoner": 5207,
      "melse": 5208,
      "rapport": 5209,
      "Ġsender": 5210,
      "ĠVan": 5211,
      "full": 5212,
      "holdt": 5213,
      "Ġpensjon": 5214,
      "we": 5215,
      "Ġmotor": 5216,
      "ktioner": 5217,
      "sil": 5218,
      "data": 5219,
      "Ġfug": 5220,
      "Ġvesent": 5221,
      "Ġoppr": 5222,
      "Ġdriv": 5223,
      "Ġunna": 5224,
      "ntering": 5225,
      "Ġrelevant": 5226,
      "Ġfremst": 5227,
      "ĠTran": 5228,
      "lop": 5229,
      "Ġvalue": 5230,
      "Ġintervju": 5231,
      "bruks": 5232,
      "ĠKultur": 5233,
      "Ġskuld": 5234,
      "tteri": 5235,
      "Ġenga": 5236,
      "ĠkÃ¶": 5237,
      "ĠPubli": 5238,
      "ween": 5239,
      "asser": 5240,
      "ĠTrom": 5241,
      "ĠÃ¦r": 5242,
      "ĠCan": 5243,
      "Ġregu": 5244,
      "ĠhÃ¸yre": 5245,
      "Ġviss": 5246,
      "ware": 5247,
      "âĢĿ,": 5248,
      "Ġkvalifi": 5249,
      "ĠTom": 5250,
      "PS": 5251,
      "ĠUng": 5252,
      "xi": 5253,
      "bÃ¦r": 5254,
      "ĠGam": 5255,
      "ligheter": 5256,
      "Ġkring": 5257,
      "Ġutover": 5258,
      "ĠFÃ¥": 5259,
      "rÃ¥dene": 5260,
      "Ġvol": 5261,
      "Ġtilstre": 5262,
      "mest": 5263,
      "Ġye": 5264,
      "ĠEm": 5265,
      "spoliti": 5266,
      "Ġlegges": 5267,
      "ĠFore": 5268,
      "Ġkop": 5269,
      "Ġtross": 5270,
      "pende": 5271,
      "hel": 5272,
      "uet": 5273,
      "tage": 5274,
      "Ġspor": 5275,
      "Ġpy": 5276,
      "vig": 5277,
      "ĠBÃ¥de": 5278,
      "uk": 5279,
      "vest": 5280,
      "Ġtilfred": 5281,
      "Ġinnsats": 5282,
      "ĠFle": 5283,
      "Ġabout": 5284,
      "Ġsamarbeide": 5285,
      "Ġdiagno": 5286,
      "ĠLang": 5287,
      "Ġoppdatert": 5288,
      "ĠutfÃ¸rt": 5289,
      "Ġhandle": 5290,
      "ĠmÃ¤": 5291,
      "base": 5292,
      "Ġraise": 5293,
      "Ġfan": 5294,
      "Ġskatt": 5295,
      "kap": 5296,
      "Ã¸rene": 5297,
      "ĠFram": 5298,
      "Ġselve": 5299,
      "ĠFlere": 5300,
      "Ġspar": 5301,
      "Ġmulighed": 5302,
      "jellet": 5303,
      "Ġtaka": 5304,
      "bler": 5305,
      "Ġsvart": 5306,
      "Ġark": 5307,
      "Ġbruge": 5308,
      "Ġbedste": 5309,
      "Ġsentral": 5310,
      "abel": 5311,
      "person": 5312,
      "assen": 5313,
      "nisk": 5314,
      "Ġkunnu": 5315,
      "ĠgjennomfÃ¸re": 5316,
      "/S": 5317,
      "Ġreligi": 5318,
      "Ġcomp": 5319,
      "kelig": 5320,
      "Ġkjente": 5321,
      "Ġwhen": 5322,
      "ls": 5323,
      "Ġtj": 5324,
      "vand": 5325,
      "enn": 5326,
      "ĠÃ¸ll": 5327,
      "Ġutviklet": 5328,
      "Ġir": 5329,
      "yer": 5330,
      "ctions": 5331,
      ".)": 5332,
      "Ġeventuelt": 5333,
      "repre": 5334,
      "Ġfotball": 5335,
      "ĠDess": 5336,
      "Ġblogg": 5337,
      "Ġdokumenter": 5338,
      "somrÃ¥de": 5339,
      "des": 5340,
      "Ġsamling": 5341,
      "Ġbudsjett": 5342,
      "Ġvent": 5343,
      "Ġdes": 5344,
      "Ġforeg": 5345,
      "kal": 5346,
      "ovet": 5347,
      "sage": 5348,
      "ĠFolke": 5349,
      "ndte": 5350,
      "kninger": 5351,
      "Ġsentrale": 5352,
      "Ġaktiv": 5353,
      "Ġ.Ċ": 5354,
      "nem": 5355,
      "ky": 5356,
      "ĠSogn": 5357,
      "Ġprogrammet": 5358,
      "ĠKanskje": 5359,
      "Ġgangen": 5360,
      "ĠWh": 5361,
      "ĠbehÃ¶": 5362,
      "ĠÃ¾eir": 5363,
      "omen": 5364,
      "Ġslett": 5365,
      "()Ċ": 5366,
      "Ġtim": 5367,
      "bild": 5368,
      "ngi": 5369,
      "Ġprisen": 5370,
      "Ġutny": 5371,
      "Ġsalt": 5372,
      "ĠkjÃ¦re": 5373,
      "Ġtvil": 5374,
      "bes": 5375,
      "Ġgjennomsnitt": 5376,
      "hei": 5377,
      "ĠNorske": 5378,
      "nell": 5379,
      "rinne": 5380,
      "Ġkarakter": 5381,
      "nerer": 5382,
      "ĠlÃ¸s": 5383,
      "skil": 5384,
      "lÃ¶": 5385,
      "Ġperspe": 5386,
      "Ġuttrykk": 5387,
      "Ġvanligvis": 5388,
      "Ġbety": 5389,
      "Ġfleksi": 5390,
      "geren": 5391,
      "part": 5392,
      "Ġsolid": 5393,
      "Ġbetra": 5394,
      "maski": 5395,
      "ĠHÃ¸y": 5396,
      "nfor": 5397,
      "Ġkampen": 5398,
      "Ġsituasjon": 5399,
      "ĠPeter": 5400,
      "uth": 5401,
      "Ġkommentarer": 5402,
      "Ġformer": 5403,
      "Ġargu": 5404,
      "trent": 5405,
      "versitete": 5406,
      "mÃ¡": 5407,
      "lÃ½": 5408,
      "fatter": 5409,
      "Ġautomatisk": 5410,
      "ĠAf": 5411,
      "ĠTakk": 5412,
      "_path": 5413,
      "Ġeach": 5414,
      "lighed": 5415,
      "Ġkonse": 5416,
      "Ġche": 5417,
      "Ġvurdert": 5418,
      "Ġbloggen": 5419,
      "}\")Ċ": 5420,
      "ĠÃ¥ra": 5421,
      "Ġ###": 5422,
      "ĠBarne": 5423,
      "ĠâĢĺ": 5424,
      "splass": 5425,
      "ustad": 5426,
      "sity": 5427,
      "ĠÃ¥pne": 5428,
      "Ġbetween": 5429,
      "Ġvant": 5430,
      "ĠMal": 5431,
      "Ġuser": 5432,
      "Ġnaturen": 5433,
      "mati": 5434,
      "ttir": 5435,
      "Ã¸dt": 5436,
      "ĠVidere": 5437,
      "nali": 5438,
      "stillinge": 5439,
      "Ġlande": 5440,
      ".c": 5441,
      "ryt": 5442,
      "stillingen": 5443,
      "Ġbegre": 5444,
      "lent": 5445,
      "ĠHvorfor": 5446,
      "smannen": 5447,
      "AD": 5448,
      "ĠCO": 5449,
      "ordin": 5450,
      "Ġhotell": 5451,
      "Ġusikker": 5452,
      "ĠKi": 5453,
      "skrivelse": 5454,
      "ĠðŁĻ": 5455,
      "Ġleie": 5456,
      "Ġwhere": 5457,
      "Ġreali": 5458,
      "ĠSak": 5459,
      "Ġsend": 5460,
      "ĠVÃ¦r": 5461,
      "versitetet": 5462,
      "yttelse": 5463,
      "ĠNRK": 5464,
      "ĠtÃ³": 5465,
      "omo": 5466,
      "Ġcy": 5467,
      "kna": 5468,
      "Ġteam": 5469,
      "Ġklarer": 5470,
      "Ã¾": 5471,
      "_id": 5472,
      "grad": 5473,
      "ĠHos": 5474,
      "Ġandet": 5475,
      "Ġcent": 5476,
      "Ġtilstand": 5477,
      "ely": 5478,
      "tab": 5479,
      "ĠhÃ¤": 5480,
      "Ġdefini": 5481,
      "ward": 5482,
      "Ġmes": 5483,
      "ĠCol": 5484,
      "tionen": 5485,
      "oli": 5486,
      "fal": 5487,
      "ckholm": 5488,
      "rt": 5489,
      "seende": 5490,
      "Ġoppleve": 5491,
      "Ġutfordringer": 5492,
      "frÃ¥": 5493,
      "Ġsund": 5494,
      "ĠtÃ": 5495,
      "ates": 5496,
      "Ġtorsdag": 5497,
      "ano": 5498,
      "Ġprosessen": 5499,
      "Ġredusert": 5500,
      "Ġsym": 5501,
      "ĠSv": 5502,
      "Ã¥ten": 5503,
      "ĠmÃ³": 5504,
      "Me": 5505,
      "funn": 5506,
      "ĠWind": 5507,
      "Ġgud": 5508,
      "Ġreser": 5509,
      "rus": 5510,
      "Ġgrader": 5511,
      "legger": 5512,
      "ĠFrank": 5513,
      "Ġsupp": 5514,
      "parten": 5515,
      "ĠRei": 5516,
      "basert": 5517,
      "Ġproduktet": 5518,
      "Ġhade": 5519,
      "ykke": 5520,
      "Ġplat": 5521,
      "itekt": 5522,
      "tit": 5523,
      "ĠgrÃ¸nn": 5524,
      "ception": 5525,
      "Ġeventuelle": 5526,
      "sprÃ¥k": 5527,
      "ĠsjÃ¤l": 5528,
      "Ġidag": 5529,
      "ringene": 5530,
      "Ġalkoh": 5531,
      "ĠgrÃ¥": 5532,
      "Ġfrukt": 5533,
      "tiver": 5534,
      "Ġkund": 5535,
      "ttig": 5536,
      "ĠbÃ¥t": 5537,
      "sort": 5538,
      "valet": 5539,
      "Ġheime": 5540,
      "ĠÃ¸ker": 5541,
      "ĠNei": 5542,
      "vr": 5543,
      "ĠEd": 5544,
      "_t": 5545,
      "nser": 5546,
      "Ġhis": 5547,
      "mali": 5548,
      "Ġvold": 5549,
      "Ġorigi": 5550,
      "ĠmÃ¥ter": 5551,
      "ĠmÃ¥nga": 5552,
      "Ġkategori": 5553,
      "ĠbÃ¦r": 5554,
      "strem": 5555,
      "Ġarbet": 5556,
      "edagogi": 5557,
      "ĠNet": 5558,
      "ussen": 5559,
      "leiri": 5560,
      "Ġpres": 5561,
      "Ġtab": 5562,
      "\"]": 5563,
      "ĠoppfÃ¸lging": 5564,
      "Â°": 5565,
      "ettet": 5566,
      "fat": 5567,
      "Ġlettere": 5568,
      "Ġmillum": 5569,
      "skland": 5570,
      "Ġreiser": 5571,
      "somme": 5572,
      "Ġspesifi": 5573,
      "Ġbekre": 5574,
      "For": 5575,
      "iliteter": 5576,
      "Ġvedt": 5577,
      "EM": 5578,
      "arbejde": 5579,
      "Ġmateriale": 5580,
      "forhold": 5581,
      "kir": 5582,
      "Ġforholde": 5583,
      "Ġheter": 5584,
      "ida": 5585,
      "ĠAB": 5586,
      "PP": 5587,
      "ĠFag": 5588,
      "Ġgis": 5589,
      "Ġartikkelen": 5590,
      "stens": 5591,
      "opper": 5592,
      "Ġ==": 5593,
      "ĠBre": 5594,
      "ĠBak": 5595,
      "Ġkonkurr": 5596,
      "Ġverne": 5597,
      "hjem": 5598,
      "ĠhÃº": 5599,
      "systemet": 5600,
      "Ã¶t": 5601,
      "ograf": 5602,
      "Ġetc": 5603,
      "Ġwork": 5604,
      "Ġbab": 5605,
      "ĠEfter": 5606,
      "RO": 5607,
      "ĠðŁĻĤ": 5608,
      "Ġinvest": 5609,
      "Ġvaske": 5610,
      "Ġutviklingen": 5611,
      "ĠkjÃ¸nn": 5612,
      "ĠtÃ¥": 5613,
      "Ġeld": 5614,
      "Ġpenge": 5615,
      "Ġplante": 5616,
      "Ġkonser": 5617,
      "Ġtilsette": 5618,
      "ĠforstÃ¥else": 5619,
      "lend": 5620,
      "Ġresp": 5621,
      "Ġlong": 5622,
      "Ġfind": 5623,
      "Ġvass": 5624,
      "Ġskaper": 5625,
      "ggja": 5626,
      "jande": 5627,
      "ĠSkri": 5628,
      "ĠbÃ": 5629,
      "utdanning": 5630,
      "Ġkalla": 5631,
      "iluft": 5632,
      "Ġpositiv": 5633,
      "ile": 5634,
      "Ġrol": 5635,
      "Ġoverna": 5636,
      "Ã°ing": 5637,
      "Ġjobbet": 5638,
      "ĠkjÃ¸per": 5639,
      "ĠBare": 5640,
      "svis": 5641,
      "ĠLar": 5642,
      "fang": 5643,
      "urrent": 5644,
      "Ġvinner": 5645,
      "ĠDig": 5646,
      "strÃ¸m": 5647,
      "Ġclass": 5648,
      "ĠspÃ¦": 5649,
      "ĠForsk": 5650,
      "ish": 5651,
      "pent": 5652,
      "Ġmiddag": 5653,
      "Ġtrykk": 5654,
      "ulte": 5655,
      "Ġfaste": 5656,
      "table": 5657,
      "Ġvinne": 5658,
      "aner": 5659,
      "Ã¸mme": 5660,
      "sikk": 5661,
      "Ġbidrag": 5662,
      "ĠMiljÃ¸": 5663,
      "Ġkommunane": 5664,
      "ĠFal": 5665,
      "Ġkorr": 5666,
      "Ġtog": 5667,
      "rip": 5668,
      "Ġbei": 5669,
      "Ã¦g": 5670,
      "ĠFy": 5671,
      "ĠoppgÃ¥": 5672,
      "Ġany": 5673,
      "ĠStatens": 5674,
      "Ġanalyse": 5675,
      "Ġmedier": 5676,
      "Ġinspi": 5677,
      "Ġfritid": 5678,
      "bert": 5679,
      "Ġengasj": 5680,
      "Ġinnlegg": 5681,
      "Ġkommunale": 5682,
      "ĠlÃ¸rdag": 5683,
      "jÃ³r": 5684,
      "ĠLars": 5685,
      "Ġkorte": 5686,
      "skilt": 5687,
      "stert": 5688,
      "ĠBok": 5689,
      "tto": 5690,
      "Ġlevert": 5691,
      "port": 5692,
      "gor": 5693,
      "ellene": 5694,
      "ĠHi": 5695,
      "Ġannon": 5696,
      "ĠmÃ¥d": 5697,
      "Ġgave": 5698,
      "Ġstiller": 5699,
      "âĢĿ.": 5700,
      "ĠOle": 5701,
      "mÃ¸te": 5702,
      "ĠmÃ¥de": 5703,
      "Ġskulu": 5704,
      "Ġsome": 5705,
      "rÃ©": 5706,
      "------------": 5707,
      "Ġsektor": 5708,
      "ĠSunn": 5709,
      "jed": 5710,
      "ĠRegje": 5711,
      "Ġsituasjonen": 5712,
      "Ġnynorsk": 5713,
      "uen": 5714,
      "Re": 5715,
      "ometer": 5716,
      "sÃ¡": 5717,
      "ĠHver": 5718,
      "Ġstatus": 5719,
      "Ġinternett": 5720,
      "Ġintegr": 5721,
      "rog": 5722,
      "siske": 5723,
      "Ġsikrer": 5724,
      "Ġtilbage": 5725,
      "unnskap": 5726,
      "ĠSpesi": 5727,
      "Ġhalde": 5728,
      "Ġbri": 5729,
      "Ġles": 5730,
      "Ġvenn": 5731,
      "Ġaktivt": 5732,
      "seg": 5733,
      "ĠSti": 5734,
      "Ġeksisterende": 5735,
      "Ġrent": 5736,
      "cel": 5737,
      "Ġmiddel": 5738,
      "liggende": 5739,
      "petanse": 5740,
      "Ġdigital": 5741,
      "ĠfÃ¸lelse": 5742,
      "Ġfelt": 5743,
      "ĠHist": 5744,
      "Ġpasienter": 5745,
      "ĠnÃ¸dvendige": 5746,
      "Ġverkse": 5747,
      "Ġuttry": 5748,
      "Ġutvid": 5749,
      "atri": 5750,
      "_name": 5751,
      "ĠbÃ¸ker": 5752,
      "Ġumiddel": 5753,
      "Ġton": 5754,
      "arn": 5755,
      "ĠGuds": 5756,
      "Ġdyre": 5757,
      "Ġlid": 5758,
      "fisk": 5759,
      "ĠInt": 5760,
      "Ġstig": 5761,
      "Ġknytt": 5762,
      "Ġtage": 5763,
      "Ġvakr": 5764,
      "vise": 5765,
      "Ġkron": 5766,
      "Ġblomster": 5767,
      "Ġsystemet": 5768,
      "ution": 5769,
      "ĠbÃº": 5770,
      "Ġforvaltning": 5771,
      "Ġhvit": 5772,
      "ĠĠĠĠĠĠĠĠĠĠĠĠĠĠĠĠĠĠĠĠĠĠĠĠĠĠĠĠĠĠĠĠĠĠĠĠĠĠĠĠĠĠĠĠĠĠĠĠĠĠĠĠĠĠĠĠĠĠĠĠĠĠĠĠ": 5773,
      "ĠPris": 5774,
      "male": 5775,
      "Ġlitteratur": 5776,
      "Ġekster": 5777,
      "SE": 5778,
      "Ġaner": 5779,
      "Ġonsdag": 5780,
      "stur": 5781,
      "ligheten": 5782,
      "Ġstaten": 5783,
      "Ã¥dd": 5784,
      "ĠVir": 5785,
      "Ġthan": 5786,
      "ndal": 5787,
      "ĠHerr": 5788,
      "vasjon": 5789,
      "ĠinngÃ¥": 5790,
      "Ġdisp": 5791,
      "buti": 5792,
      "TI": 5793,
      "har": 5794,
      "Ġbestille": 5795,
      "Ġendelig": 5796,
      "Ġavd": 5797,
      "ĠAu": 5798,
      "Ġgodkjent": 5799,
      "pass": 5800,
      "Ã¸se": 5801,
      "-talet": 5802,
      "itar": 5803,
      "tering": 5804,
      "Ġleverer": 5805,
      "Ġï¿½": 5806,
      "Ġersta": 5807,
      "organisa": 5808,
      "Ġopptatt": 5809,
      "Ġtilsvarende": 5810,
      "ĠSum": 5811,
      "za": 5812,
      "nest": 5813,
      "Ġfortsette": 5814,
      "ĠgÃ¶ra": 5815,
      "Ġflu": 5816,
      "Ã¸st": 5817,
      "stund": 5818,
      "posi": 5819,
      "htt": 5820,
      "/eller": 5821,
      "Ġtusen": 5822,
      "nation": 5823,
      "Ġmaksi": 5824,
      "Ġkostnader": 5825,
      "Ġforeb": 5826,
      "lys": 5827,
      "ĠVI": 5828,
      "ĠforeslÃ¥": 5829,
      "Ġstolt": 5830,
      "VE": 5831,
      "Ġube": 5832,
      "Ġdialog": 5833,
      "Ġglem": 5834,
      "ĠHÃ¸g": 5835,
      "Ġnummer": 5836,
      "ĠstrÃ¥": 5837,
      "ladet": 5838,
      "ĠPoliti": 5839,
      "Ġlogi": 5840,
      "adem": 5841,
      "vann": 5842,
      "Ġeinum": 5843,
      "surs": 5844,
      "Ġvali": 5845,
      "Ã°r": 5846,
      "ĠStortinget": 5847,
      "Ġrum": 5848,
      "Ġdrive": 5849,
      "ĠÃ¸k": 5850,
      "Ġč": 5851,
      "ea": 5852,
      "Ġhelg": 5853,
      "Ġ:-": 5854,
      "Ġkontor": 5855,
      "rop": 5856,
      "Ġressurs": 5857,
      "sann": 5858,
      "Ġkrev": 5859,
      "Ġprosess": 5860,
      "ĠrÃ¸r": 5861,
      "ĠVÃ": 5862,
      "hj": 5863,
      "Ġforekom": 5864,
      "Ġorganisasjon": 5865,
      "Ġminimum": 5866,
      "ĠvÃ¥ren": 5867,
      "hte": 5868,
      "Ġeffektivt": 5869,
      "ĠtrÃ¤": 5870,
      "flo": 5871,
      "ola": 5872,
      "Ġomtrent": 5873,
      "Ġneed": 5874,
      "Ġiso": 5875,
      "ĠÃĦ": 5876,
      "Ġomfattende": 5877,
      "ĠThom": 5878,
      "Ġvarm": 5879,
      "Ġhow": 5880,
      "Ġhundr": 5881,
      "Ġtrygt": 5882,
      "ĠMic": 5883,
      "ĠMor": 5884,
      "ĠÃĺn": 5885,
      "stasjon": 5886,
      "ĠÃĺy": 5887,
      "eldigvis": 5888,
      "Ġoven": 5889,
      "virksom": 5890,
      "ĠTur": 5891,
      "Ġkey": 5892,
      "ĠÃ¥rsa": 5893,
      "Ġoppgaver": 5894,
      "Ġens": 5895,
      "ĠKong": 5896,
      "Ġbist": 5897,
      "Ġmikro": 5898,
      "ĠBerg": 5899,
      "Ġtider": 5900,
      "Ġhesum": 5901,
      "Ġlignende": 5902,
      "aa": 5903,
      "Ġsimp": 5904,
      "ttak": 5905,
      "jder": 5906,
      "sÃ¥r": 5907,
      "Ġnya": 5908,
      "bility": 5909,
      "ĠUpp": 5910,
      "kjent": 5911,
      "Ġresultatet": 5912,
      "Ġmoder": 5913,
      "Ġsvare": 5914,
      "Ġemp": 5915,
      "Ġvakre": 5916,
      "ĠsÃ¥k": 5917,
      "kelser": 5918,
      ".dk": 5919,
      "ĠmÃ¶j": 5920,
      "fjorden": 5921,
      "ĠSpÃ¸r": 5922,
      "ktar": 5923,
      "ĠCr": 5924,
      "Ġstarta": 5925,
      "Ġgull": 5926,
      "[str": 5927,
      "ĠTot": 5928,
      "ĠmÃ¥let": 5929,
      "mpe": 5930,
      "liste": 5931,
      "leggende": 5932,
      "Ġport": 5933,
      "kelsen": 5934,
      "Ġpersonlige": 5935,
      "thod": 5936,
      "siv": 5937,
      "ĠtÃ¦r": 5938,
      "Ġherunder": 5939,
      "Ġinform": 5940,
      "lim": 5941,
      "off": 5942,
      "Ġintrodu": 5943,
      "Ġfarger": 5944,
      "Ġregistrering": 5945,
      "givning": 5946,
      "Jeg": 5947,
      "ĠKje": 5948,
      "ussu": 5949,
      "ĠkjÃ¸pt": 5950,
      "Ġvarier": 5951,
      "Ġaku": 5952,
      "oteket": 5953,
      "talt": 5954,
      "ĠAle": 5955,
      "skrav": 5956,
      "Ġutdan": 5957,
      "ĠMartin": 5958,
      "Ġinteressant": 5959,
      "ĠĠĠĠĠĠĠĠĠĠĠĠĠĠ": 5960,
      "lÃ¸s": 5961,
      "kedet": 5962,
      "ĠlÃ¥ne": 5963,
      "ctive": 5964,
      "Ġvurder": 5965,
      "Ġkvalitets": 5966,
      "KS": 5967,
      "Ġprofesjone": 5968,
      "redien": 5969,
      "of": 5970,
      "Ġfolket": 5971,
      "Ġoverf": 5972,
      "Ġkvelde": 5973,
      "gÃ¡": 5974,
      "Ġinnom": 5975,
      "lor": 5976,
      "ĠDr": 5977,
      "[\"": 5978,
      "Ġeurope": 5979,
      "Ġsjuke": 5980,
      "Ġthere": 5981,
      "Ġkvelden": 5982,
      "yggen": 5983,
      "ĠAg": 5984,
      "Ġrekru": 5985,
      "ain": 5986,
      "Ġkonstru": 5987,
      "yldig": 5988,
      "back": 5989,
      "ĠsÃ¥g": 5990,
      "ĠLille": 5991,
      "omrÃ¥der": 5992,
      "range": 5993,
      "inum": 5994,
      "Ġspecifi": 5995,
      "visor": 5996,
      "una": 5997,
      "usen": 5998,
      "Ġmulige": 5999,
      "Ġtje": 6000,
      "ĠNT": 6001,
      "ĠPC": 6002,
      "ĠHetta": 6003,
      "spor": 6004,
      "Ġnyttig": 6005,
      "load": 6006,
      "ĠSan": 6007,
      "Ġlen": 6008,
      "ĠforhÃ¥nd": 6009,
      "Ġpartner": 6010,
      "pris": 6011,
      "Ġinput": 6012,
      "Ġadd": 6013,
      "Ġjenter": 6014,
      ".se": 6015,
      "skog": 6016,
      "olo": 6017,
      "ansert": 6018,
      "ĠnÃ³gv": 6019,
      "ony": 6020,
      "ĠLÃ": 6021,
      "plane": 6022,
      "Ġnegative": 6023,
      "ilsen": 6024,
      "Ġdriver": 6025,
      "ngden": 6026,
      "slipp": 6027,
      "Ġreng": 6028,
      "irsdag": 6029,
      "Ġdie": 6030,
      "Ġlands": 6031,
      "spi": 6032,
      "Ġvigtigt": 6033,
      "Ġledelse": 6034,
      "Ã¤Ã¤": 6035,
      "ĠJohn": 6036,
      "ngar": 6037,
      "ĠvÃ³ru": 6038,
      "DE": 6039,
      "ĠSammen": 6040,
      "sang": 6041,
      "ĠutÃ¸": 6042,
      "Ġpor": 6043,
      "Ġansvaret": 6044,
      "lity": 6045,
      "Ġreal": 6046,
      "Ġbenytte": 6047,
      "oti": 6048,
      "jon": 6049,
      "-pro": 6050,
      "ansvar": 6051,
      "smid": 6052,
      "lÃ¥n": 6053,
      "minne": 6054,
      "¥s": 6055,
      "ĠkjÃ¸kken": 6056,
      "Ġinvestering": 6057,
      "Ġopptil": 6058,
      "ĠRep": 6059,
      "Ġsnakker": 6060,
      "Ġtrafikk": 6061,
      "Ġkapittel": 6062,
      "Ġomfatter": 6063,
      "Ġflytte": 6064,
      "Ã¸s": 6065,
      "Ġmusik": 6066,
      "nnur": 6067,
      "ommet": 6068,
      "Ġopplevelse": 6069,
      "Ġtrur": 6070,
      "ĠStore": 6071,
      "ĠIT": 6072,
      "rite": 6073,
      "tation": 6074,
      "nus": 6075,
      "tes": 6076,
      "ĠOnline": 6077,
      "Ġynsk": 6078,
      "ĠnÃ¥gon": 6079,
      "ĠHav": 6080,
      "eksjon": 6081,
      "konomi": 6082,
      "Ġerfaringer": 6083,
      "ĠMon": 6084,
      "âĢ¦Ċ": 6085,
      "ript": 6086,
      "ndrer": 6087,
      "itering": 6088,
      "tingar": 6089,
      "gir": 6090,
      "ledd": 6091,
      "Ġpapir": 6092,
      "Ġfleiri": 6093,
      "ĠHann": 6094,
      "dannelse": 6095,
      "Ġvej": 6096,
      "ĠBir": 6097,
      "smessig": 6098,
      "Ã¸gu": 6099,
      "illing": 6100,
      "Ġkraftig": 6101,
      "ĠBes": 6102,
      "stav": 6103,
      "ĠGÃ": 6104,
      "asin": 6105,
      "Ġyrke": 6106,
      "kat": 6107,
      "tidige": 6108,
      "Ġansvarlig": 6109,
      "Ġpositivt": 6110,
      "Ġoppda": 6111,
      "Ġrob": 6112,
      "riere": 6113,
      "gruppa": 6114,
      "Ġlast": 6115,
      "Ġ:)": 6116,
      "Ġspesielle": 6117,
      "gelsen": 6118,
      "Ġtilh": 6119,
      "Ġrommet": 6120,
      "Ġtenkt": 6121,
      "Ġbygger": 6122,
      "liger": 6123,
      "ndon": 6124,
      "ĠHus": 6125,
      "Ġpara": 6126,
      "Ġram": 6127,
      "Ġrelevante": 6128,
      "Ġfik": 6129,
      "Ġvanlige": 6130,
      "ĠTru": 6131,
      "**Ċ": 6132,
      "Ġopplysninger": 6133,
      "ĠnÃ¥got": 6134,
      "Ġnyte": 6135,
      "Ġhitt": 6136,
      "Ġspre": 6137,
      "jell": 6138,
      "Ġhalda": 6139,
      "ĠlÃ¡": 6140,
      "Ġtop": 6141,
      "ĠData": 6142,
      "ĠAns": 6143,
      "Ġtillit": 6144,
      "sisk": 6145,
      "nior": 6146,
      "UL": 6147,
      "vÃ¤r": 6148,
      "Ġbygning": 6149,
      "lir": 6150,
      "Ġskyldes": 6151,
      "engt": 6152,
      "Fi": 6153,
      "_data": 6154,
      "Ġbillig": 6155,
      "ĠWindows": 6156,
      "sjonell": 6157,
      "Ġfantastiske": 6158,
      "Ġdato": 6159,
      "ĠStockholm": 6160,
      "Ġwere": 6161,
      "kkende": 6162,
      "lova": 6163,
      "kens": 6164,
      "ĠSje": 6165,
      "Ġdesignet": 6166,
      "ient": 6167,
      "ĠNye": 6168,
      "ega": 6169,
      "Ġprosjekter": 6170,
      "Ġperfekte": 6171,
      "stÃ¥ende": 6172,
      "lette": 6173,
      "ĠHur": 6174,
      "Ġfound": 6175,
      "fart": 6176,
      "ila": 6177,
      "ĠAnn": 6178,
      "punkt": 6179,
      "Ġtidspunkt": 6180,
      "Ġgri": 6181,
      "Ġimponer": 6182,
      "ĠStar": 6183,
      "),Ċ": 6184,
      "meri": 6185,
      ".D": 6186,
      "Ġelement": 6187,
      "Ã¦ren": 6188,
      "Ġknow": 6189,
      "formen": 6190,
      "tene": 6191,
      "oc": 6192,
      "kaÃ°": 6193,
      "ftige": 6194,
      "ower": 6195,
      "Ġliste": 6196,
      "IF": 6197,
      "Ġfre": 6198,
      "bit": 6199,
      "Ġskulen": 6200,
      "UT": 6201,
      "itali": 6202,
      "seret": 6203,
      "Ġoverord": 6204,
      "ĠLÃ¦r": 6205,
      "Ġsiger": 6206,
      "ĠLag": 6207,
      "Ġminste": 6208,
      "Ġufor": 6209,
      "ellen": 6210,
      "Ġblevet": 6211,
      "ĠdÃ¸mes": 6212,
      "Ġmangler": 6213,
      "odde": 6214,
      "skapene": 6215,
      "Ġplanen": 6216,
      "Ġlokalt": 6217,
      "bred": 6218,
      "Ġbenyttes": 6219,
      "Ġpsyk": 6220,
      "stival": 6221,
      "okument": 6222,
      "Ġrask": 6223,
      "Ġname": 6224,
      "ridi": 6225,
      "rang": 6226,
      "Ġokkum": 6227,
      "Ġsuch": 6228,
      "Ġverdt": 6229,
      "Ġsaks": 6230,
      "ĠIndi": 6231,
      "Ġdate": 6232,
      "Ġelevene": 6233,
      "ĠNasjon": 6234,
      "Ġbrev": 6235,
      "ley": 6236,
      "ĠĠĠĠĠĠĠĠĠĠĠĠĠ": 6237,
      "Ġbase": 6238,
      "ĠAir": 6239,
      "Ġplaner": 6240,
      "Ġfrisk": 6241,
      "Ġoppe": 6242,
      "Ġverke": 6243,
      "ĠOlav": 6244,
      "ĠspÃ¸rsmÃ¥let": 6245,
      "jÃ¸ring": 6246,
      "Ġfavoritt": 6247,
      "veien": 6248,
      "ĠÃ¾Ã¡": 6249,
      "Ġkonto": 6250,
      "utvik": 6251,
      "ouse": 6252,
      "Ġanbefales": 6253,
      "skost": 6254,
      "varing": 6255,
      "ĠfÃ³lk": 6256,
      "ĠProgram": 6257,
      "mane": 6258,
      "felt": 6259,
      "ĠMad": 6260,
      "Ġmari": 6261,
      "cha": 6262,
      "Ġytterligere": 6263,
      "Ġmeira": 6264,
      "ĠÄį": 6265,
      "Ġsen": 6266,
      "Ġnp": 6267,
      "ĠstÃ³": 6268,
      "jerner": 6269,
      "ĠKap": 6270,
      "Ġrekla": 6271,
      "ĠDep": 6272,
      "tione": 6273,
      "Ġsida": 6274,
      "produksjon": 6275,
      "upp": 6276,
      "Ġhelhet": 6277,
      "Ġvisu": 6278,
      "vegen": 6279,
      "Ġbehovet": 6280,
      "essor": 6281,
      "Ġderimot": 6282,
      "Ġbasi": 6283,
      "Ġbank": 6284,
      "ĠFer": 6285,
      "Ġsendes": 6286,
      "rir": 6287,
      "Ġben": 6288,
      "Ġsammenheng": 6289,
      "hvert": 6290,
      "Ġabsolutt": 6291,
      "Ġsort": 6292,
      "Ġtag": 6293,
      "Ġsommeren": 6294,
      "Ġfilmen": 6295,
      "Ġtegn": 6296,
      "sfÃ¸ring": 6297,
      "ĠidÃ©": 6298,
      "Ġkandid": 6299,
      "ĠBank": 6300,
      "Ġhvi": 6301,
      "ĠSK": 6302,
      "Ġetable": 6303,
      "ĠHj": 6304,
      "stro": 6305,
      "Ġforskrift": 6306,
      "Ġvint": 6307,
      "Ġhverdag": 6308,
      "ĠgÃ¥rd": 6309,
      "Ġslit": 6310,
      "ĠHusk": 6311,
      "smerte": 6312,
      "Ġbrukere": 6313,
      "passe": 6314,
      "Ġstarten": 6315,
      "ĠtvÃ¥": 6316,
      "ii": 6317,
      "Ġmaster": 6318,
      "Ġserver": 6319,
      "ins": 6320,
      "Ġinklud": 6321,
      "Ġvild": 6322,
      "Ġminne": 6323,
      "Ġed": 6324,
      "rek": 6325,
      "ĠtilnÃ¦r": 6326,
      "Ġevne": 6327,
      "Ġhyggelig": 6328,
      "Ġthem": 6329,
      "Ġfare": 6330,
      "Ġ@": 6331,
      "Ġforny": 6332,
      "ĠMot": 6333,
      "ĠmÃ¡l": 6334,
      "kli": 6335,
      "somrÃ¥det": 6336,
      "Ġul": 6337,
      "Ġseinare": 6338,
      "Ġmellan": 6339,
      "Ã¸yt": 6340,
      "Ġstudenter": 6341,
      "Ġaktive": 6342,
      "Ġgange": 6343,
      "Ġbla": 6344,
      "naÃ°": 6345,
      "ĠlÃ¸se": 6346,
      "kni": 6347,
      "type": 6348,
      "Ġthese": 6349,
      "ĠBri": 6350,
      "seren": 6351,
      "Ġmorg": 6352,
      "Ġbee": 6353,
      "Ġnavnet": 6354,
      "bruket": 6355,
      "Ġoppfyl": 6356,
      "gelser": 6357,
      "smod": 6358,
      "Ġillu": 6359,
      "ĠAust": 6360,
      "Ġspare": 6361,
      "stiva": 6362,
      "obbelt": 6363,
      "Ġstein": 6364,
      "nÃ¦ring": 6365,
      "Ġsedan": 6366,
      "Ġnogen": 6367,
      "hjelp": 6368,
      "Ġfortsetter": 6369,
      "Ġvarmt": 6370,
      "ĠVÃ¥re": 6371,
      "ĠsÃ¸rge": 6372,
      "leiÃ°is": 6373,
      "jum": 6374,
      "ĠFly": 6375,
      "ace": 6376,
      "ĠifÃ¸lge": 6377,
      "Ġdifor": 6378,
      "ĠUniver": 6379,
      "ĠFÃ¸royum": 6380,
      "-B": 6381,
      "result": 6382,
      "Ġfinansiering": 6383,
      "Ġkyrkje": 6384,
      "sinn": 6385,
      "kjÃ¸p": 6386,
      "Ġour": 6387,
      "ĠId": 6388,
      "ĠpÃ¥virker": 6389,
      "Ġvegen": 6390,
      "Ã¥s": 6391,
      "akt": 6392,
      "Ġfett": 6393,
      "AP": 6394,
      "ĠSil": 6395,
      "Ġhundre": 6396,
      "ĠbrÃº": 6397,
      "Ġsmerte": 6398,
      "Ġforpli": 6399,
      "Â».Ċ": 6400,
      "sde": 6401,
      "ĠTyskland": 6402,
      "spart": 6403,
      "verdig": 6404,
      "Ġjam": 6405,
      "(Ċ": 6406,
      "Ġbrann": 6407,
      "Ġmake": 6408,
      "ĠhjÃ¤l": 6409,
      "Ġkem": 6410,
      "ung": 6411,
      "ĠBed": 6412,
      "wn": 6413,
      "ndelag": 6414,
      "erent": 6415,
      "Ġuavhengig": 6416,
      "Ġunntak": 6417,
      "Ġleiar": 6418,
      "agram": 6419,
      "ĠBor": 6420,
      "Ġvisse": 6421,
      "ĠeÃ°a": 6422,
      "sÃ¸k": 6423,
      "Ġsamb": 6424,
      "oga": 6425,
      "Ġnormal": 6426,
      "Ġmakt": 6427,
      "delt": 6428,
      "ĠbÃ¥": 6429,
      "Ġplatt": 6430,
      "ĠKÃ¸ben": 6431,
      "Ġsamle": 6432,
      "ĠBÃ¸": 6433,
      "Ġvelkommen": 6434,
      "Ġwho": 6435,
      "Ġmilit": 6436,
      "vekst": 6437,
      "vokat": 6438,
      "ĠSpille": 6439,
      "¥ende": 6440,
      "mund": 6441,
      "standen": 6442,
      "Ġsesong": 6443,
      "ĠhvÃ¸r": 6444,
      "rot": 6445,
      "Ġkonsekvens": 6446,
      "Ġmandag": 6447,
      "landske": 6448,
      "Ġgreit": 6449,
      "Ġnedenfor": 6450,
      "igt": 6451,
      "sesser": 6452,
      "Ġgal": 6453,
      "ĠOrg": 6454,
      "Ã¥ende": 6455,
      "Ġhente": 6456,
      "Ġframleis": 6457,
      "The": 6458,
      "Ġdemokra": 6459,
      "Ġbade": 6460,
      "Ġenk": 6461,
      "Ġsigur": 6462,
      "Ġdenna": 6463,
      "Ġtrans": 6464,
      "ĠSE": 6465,
      "anna": 6466,
      "oter": 6467,
      "repren": 6468,
      "ĠsÃ¦rleg": 6469,
      "-M": 6470,
      "Ġsann": 6471,
      "bygd": 6472,
      "ĠhÃ¸yd": 6473,
      "ĠTIL": 6474,
      "Ġanledning": 6475,
      "Ġmaj": 6476,
      "ople": 6477,
      "ĠdÃ¦": 6478,
      "smu": 6479,
      "att": 6480,
      "Ġingenting": 6481,
      "analy": 6482,
      "ĠFÃ¸rst": 6483,
      "Ġbredt": 6484,
      "Ġregulering": 6485,
      "Ã¦d": 6486,
      "Ġkommunene": 6487,
      "-E": 6488,
      "odi": 6489,
      "],": 6490,
      "ping": 6491,
      "Ġkul": 6492,
      "Ġdistribu": 6493,
      "Ġfysiske": 6494,
      "ĠVelkommen": 6495,
      "ĠÃ¸yebli": 6496,
      "taget": 6497,
      "fn": 6498,
      "Ġeiga": 6499,
      "ĠGar": 6500,
      "Ã¸yet": 6501,
      "ĠsÃ¥dan": 6502,
      "Ġnettverk": 6503,
      "Ġdemon": 6504,
      "Ġhor": 6505,
      "Ġflest": 6506,
      "Ġtall": 6507,
      "ÃŃk": 6508,
      "ĠVelg": 6509,
      "Ġplast": 6510,
      "Ġpul": 6511,
      "Ġmust": 6512,
      "Ġskader": 6513,
      "^{": 6514,
      "elu": 6515,
      "ĠHansen": 6516,
      "Ġpresse": 6517,
      "Ġutgangspunktet": 6518,
      "alisering": 6519,
      "Ġhensi": 6520,
      "Ġsitte": 6521,
      "Ġaksep": 6522,
      "smar": 6523,
      "regi": 6524,
      "fan": 6525,
      "Ġalkohol": 6526,
      "Ġfuld": 6527,
      "settes": 6528,
      "karar": 6529,
      "ĠnÃ¡": 6530,
      "erence": 6531,
      "sland": 6532,
      "Ġinni": 6533,
      "Ġglass": 6534,
      "Ġbered": 6535,
      "Ġskriva": 6536,
      "Ġfinst": 6537,
      "Ġnevnt": 6538,
      "ttering": 6539,
      "ĠFrem": 6540,
      "Ġstraff": 6541,
      "Ġeksk": 6542,
      "Ġutarbeid": 6543,
      "Ġmay": 6544,
      "ĠID": 6545,
      "ool": 6546,
      "lis": 6547,
      "edom": 6548,
      "Ġstoff": 6549,
      "Ġinneh": 6550,
      "word": 6551,
      "lus": 6552,
      "rup": 6553,
      "Ġstemme": 6554,
      "Ġgaranti": 6555,
      "Ġmodell": 6556,
      "Ġretningslinjer": 6557,
      "ĠAtt": 6558,
      "ellet": 6559,
      "ĠlÃ¦rt": 6560,
      "leier": 6561,
      "Ġhefur": 6562,
      "nerte": 6563,
      "ntes": 6564,
      "ped": 6565,
      "kraftig": 6566,
      "ĠgjennomfÃ¸ring": 6567,
      "viser": 6568,
      "ssland": 6569,
      "ndens": 6570,
      "sident": 6571,
      "Ġproblemet": 6572,
      "Ġkrig": 6573,
      "Ġegg": 6574,
      "Ġnumbers": 6575,
      "Ġpersonar": 6576,
      "ĠLÃ¦": 6577,
      "Ġteknisk": 6578,
      "Ġopplysning": 6579,
      "AND": 6580,
      "Ġkreditt": 6581,
      "ĠsprÃ¥": 6582,
      "henger": 6583,
      "ĠKl": 6584,
      "Ġskapt": 6585,
      "handel": 6586,
      "Ġbeen": 6587,
      "planen": 6588,
      "jÃ¸rn": 6589,
      "ĠsÃ©r": 6590,
      "Ġproces": 6591,
      "Ġvalgte": 6592,
      "Ġinclud": 6593,
      "Ġelevane": 6594,
      "anum": 6595,
      "ĠkrÃ¦": 6596,
      "ĠGunn": 6597,
      "ĠSuper": 6598,
      "Ġteimum": 6599,
      "ĠHy": 6600,
      "ĠgÃ¸y": 6601,
      "ual": 6602,
      "ĠArne": 6603,
      "stÃ¦": 6604,
      "Ġstabil": 6605,
      "uer": 6606,
      "Ã¯": 6607,
      "zer": 6608,
      "ĠCre": 6609,
      "budet": 6610,
      "ĠhÃ¸st": 6611,
      "ngder": 6612,
      "Ġarrangement": 6613,
      "ĠGene": 6614,
      "ĠrÃ¤": 6615,
      "Ġfritt": 6616,
      "Ġjakt": 6617,
      "Ġbutikk": 6618,
      "virkning": 6619,
      "oso": 6620,
      "felag": 6621,
      "ĠViÃ°": 6622,
      "kn": 6623,
      "ams": 6624,
      "Ġskrev": 6625,
      "ĠOl": 6626,
      "ĠLok": 6627,
      "Ġokkara": 6628,
      "Ġsentralt": 6629,
      "merket": 6630,
      "ĠforstÃ¥r": 6631,
      "senteret": 6632,
      "Ġeige": 6633,
      "Ġforsking": 6634,
      "ĠStart": 6635,
      "Ġlurt": 6636,
      "ĠDy": 6637,
      "Ġpengene": 6638,
      "sce": 6639,
      "ntert": 6640,
      "velop": 6641,
      "gaste": 6642,
      "leve": 6643,
      "Ġprem": 6644,
      "ĠkjÃ¦rlighet": 6645,
      "ĠAV": 6646,
      "logg": 6647,
      "Ġligge": 6648,
      "skulen": 6649,
      "Ġlaste": 6650,
      "Ġvisst": 6651,
      ".H": 6652,
      "itee": 6653,
      "nc": 6654,
      "Ġdetaljer": 6655,
      "Ġkonklu": 6656,
      "Ġkampan": 6657,
      "Ġkonsekvenser": 6658,
      "Ġekstrem": 6659,
      "rael": 6660,
      "Ġgjenst": 6661,
      "ĠnÃ¸ya": 6662,
      "mannen": 6663,
      "ĠMÃ¥let": 6664,
      "ï¿½r": 6665,
      "Ġbruger": 6666,
      "ĠrÃ¤tt": 6667,
      "Ġtekniske": 6668,
      "}\")ĊĊ": 6669,
      "Ġprog": 6670,
      "Ġback": 6671,
      "anset": 6672,
      "sarbeid": 6673,
      "Ġsyns": 6674,
      "ĠpÃ¥virke": 6675,
      "Ġyvir": 6676,
      "Ġovernatting": 6677,
      "Ġstyring": 6678,
      "Ġbefolk": 6679,
      "ĠFjordane": 6680,
      "ml": 6681,
      ".:": 6682,
      "Ġsjekke": 6683,
      "ĠDN": 6684,
      "Ġvedlikehold": 6685,
      "bile": 6686,
      "ĠfÃ¸dt": 6687,
      "eet": 6688,
      "Ã°ini": 6689,
      "Ġjern": 6690,
      "ĠGÃ¥": 6691,
      "OT": 6692,
      "later": 6693,
      "ĠÃ¾ess": 6694,
      "ĠmÃ¦r": 6695,
      "fÃ©": 6696,
      "rÃ¸rende": 6697,
      "sw": 6698,
      "Ġnettcasino": 6699,
      "ningens": 6700,
      "ĠAc": 6701,
      "ĠJÃ¸r": 6702,
      "gÃ¸r": 6703,
      "Ġonly": 6704,
      "Ġrapporten": 6705,
      "Ġhela": 6706,
      "Ã¸j": 6707,
      "Ġdeira": 6708,
      "ĠbÃ¤": 6709,
      "Ġroy": 6710,
      "stille": 6711,
      "ĠKnut": 6712,
      "Ġskikkelig": 6713,
      "Ġ?": 6714,
      "kommu": 6715,
      "alar": 6716,
      "Ġmain": 6717,
      "Ġson": 6718,
      "ading": 6719,
      "mering": 6720,
      "god": 6721,
      "edrag": 6722,
      "ferdig": 6723,
      "Ġforrige": 6724,
      "IM": 6725,
      "ĠKro": 6726,
      "Ġfungere": 6727,
      "Ġmethod": 6728,
      "Ġavstand": 6729,
      "Ġgrunnleggende": 6730,
      "Ġpolitie": 6731,
      "gjande": 6732,
      "Ġlun": 6733,
      "Ġpsykisk": 6734,
      "Ġmedarbeid": 6735,
      "Ġrea": 6736,
      "ydro": 6737,
      "UM": 6738,
      "ĠskÃº": 6739,
      "handler": 6740,
      "shop": 6741,
      "--|": 6742,
      "Ġ\\(": 6743,
      "Ġ_": 6744,
      "ĠOptional": 6745,
      "ĠhÃ¥ret": 6746,
      "aldet": 6747,
      "Ġdeltak": 6748,
      "Ġfriluft": 6749,
      "kri": 6750,
      "ĠAm": 6751,
      "ĠMel": 6752,
      "Ġkontakte": 6753,
      "Ġgram": 6754,
      "Ġetablere": 6755,
      "Ġandel": 6756,
      "snivÃ¥": 6757,
      "ĠGri": 6758,
      "Ġhende": 6759,
      "Ġartikkel": 6760,
      "Ġmannen": 6761,
      "ĠoppstÃ¥r": 6762,
      "ĠÃĺnsker": 6763,
      "Ġblandt": 6764,
      "Ġinnanfor": 6765,
      "iga": 6766,
      "Ġstudier": 6767,
      "iteen": 6768,
      "alo": 6769,
      "smÃ¸tet": 6770,
      "tical": 6771,
      "Ġtenkte": 6772,
      "Ġdia": 6773,
      "Ġbegrenset": 6774,
      "Ġfelle": 6775,
      "Ġadgang": 6776,
      "Ġterr": 6777,
      "Ġ!": 6778,
      "Ġdens": 6779,
      "ĠHow": 6780,
      "mÃ¤": 6781,
      "Ġnabo": 6782,
      "Ġalvorlig": 6783,
      "ĠhÃ¸sten": 6784,
      "Ġorie": 6785,
      "ĠhÃ¸rer": 6786,
      "Ġgjera": 6787,
      "skule": 6788,
      "jernen": 6789,
      "ingi": 6790,
      "direktoratet": 6791,
      "Ġavvik": 6792,
      "Ġtrekk": 6793,
      "feranse": 6794,
      "Ġkontinu": 6795,
      "ĠLO": 6796,
      "ksess": 6797,
      "Ġhvussu": 6798,
      "Ã¸lv": 6799,
      "Ġretten": 6800,
      "Ġfeng": 6801,
      "ĠSko": 6802,
      "Ġamerikanske": 6803,
      "Ġbestilling": 6804,
      "stiller": 6805,
      "Ġmerk": 6806,
      "shus": 6807,
      "Ġfremme": 6808,
      "Ġrec": 6809,
      "ĠLondon": 6810,
      "bye": 6811,
      "Ġlinje": 6812,
      "ksen": 6813,
      "Ġforhi": 6814,
      "EST": 6815,
      "ĠarbeiÃ°": 6816,
      "Ġbarnehagen": 6817,
      "Ġpolitiet": 6818,
      "ĠSund": 6819,
      "Ġmind": 6820,
      "Ġtypen": 6821,
      "kurs": 6822,
      "slutning": 6823,
      "ype": 6824,
      "ssystem": 6825,
      "Ġutform": 6826,
      "frÃ¸": 6827,
      "etta": 6828,
      "ĠOdd": 6829,
      "ink": 6830,
      "hone": 6831,
      "ntene": 6832,
      "ĠValue": 6833,
      "ĠâĢŀ": 6834,
      "ĠMÃ¸re": 6835,
      "ĠFN": 6836,
      "Ġmuligt": 6837,
      "Ġfortelle": 6838,
      "Ġnei": 6839,
      "Ġfunksjoner": 6840,
      "Ġfei": 6841,
      "hÃº": 6842,
      "ustrien": 6843,
      "nam": 6844,
      "Ġtenk": 6845,
      "veis": 6846,
      "Ġmate": 6847,
      "ĠTal": 6848,
      "Ġvor": 6849,
      "Ġrange": 6850,
      "ĠVo": 6851,
      "ĠsÃ¥ledes": 6852,
      "Ġmaterialer": 6853,
      "ĠĠĠĠĠĠĠĠĠĠĠĠĠĠĠ": 6854,
      "zed": 6855,
      "very": 6856,
      "Ġstress": 6857,
      "gaard": 6858,
      "ĠutgjÃ¸r": 6859,
      "-Nor": 6860,
      "tnings": 6861,
      "Ġomgi": 6862,
      "national": 6863,
      "Ġmelding": 6864,
      "Ġregnskap": 6865,
      "ĠMens": 6866,
      "Ġkompli": 6867,
      "aterte": 6868,
      "ressen": 6869,
      "Ġbevisst": 6870,
      "klart": 6871,
      "diÃ°": 6872,
      "lysning": 6873,
      "Ġkrist": 6874,
      "ndur": 6875,
      "veren": 6876,
      "ĠmÃ¥le": 6877,
      "merter": 6878,
      "Ġspesial": 6879,
      "Ġtrafi": 6880,
      "rÃ¥da": 6881,
      "nopp": 6882,
      "ĠklÃ¦r": 6883,
      "Ġutveck": 6884,
      "ĠhÃ³": 6885,
      "ĠleiÃ°": 6886,
      "ĠKommunen": 6887,
      "linga": 6888,
      "ĠUi": 6889,
      "rÃ¡Ã°": 6890,
      "habil": 6891,
      "ĠavgjÃ¸rende": 6892,
      "uv": 6893,
      "Ġeksamen": 6894,
      "ĠAk": 6895,
      "Ġhodet": 6896,
      "Ġpraktiske": 6897,
      "ĠChi": 6898,
      "ĠmÃ¥ste": 6899,
      "-kon": 6900,
      "kerer": 6901,
      "Ġarbei": 6902,
      "Ġhavet": 6903,
      "antene": 6904,
      "Ġaldrig": 6905,
      "ateriale": 6906,
      "ĠUte": 6907,
      "AC": 6908,
      "vej": 6909,
      "lÃ¥r": 6910,
      "udsje": 6911,
      "bilitet": 6912,
      "ĠnÃ¦rheten": 6913,
      "Ġtilstrekkelig": 6914,
      "Ġgravid": 6915,
      "Ġforest": 6916,
      "ĠGener": 6917,
      "ĠMob": 6918,
      "Ġgrundig": 6919,
      "ksten": 6920,
      "Ġvilket": 6921,
      "artet": 6922,
      "omet": 6923,
      "Ġef": 6924,
      "Ġbegr": 6925,
      "Ġenklere": 6926,
      "Ġtilrette": 6927,
      "mos": 6928,
      "Ġmis": 6929,
      "Ġnettstedet": 6930,
      "ĠferÃ°": 6931,
      "âĢľ": 6932,
      "Ġsykkel": 6933,
      "setting": 6934,
      "Ġhafa": 6935,
      "ters": 6936,
      "adi": 6937,
      "ĠPlay": 6938,
      "Ġavfall": 6939,
      "ĠfÃ¸lgje": 6940,
      "nalen": 6941,
      "pot": 6942,
      "Ġkoster": 6943,
      "ĠstÃ¶r": 6944,
      "ĠMaria": 6945,
      "Ġtrinn": 6946,
      "ĠKur": 6947,
      "Ġvurderer": 6948,
      "-for": 6949,
      "splane": 6950,
      "ĠdÃ¡": 6951,
      "Ġsor": 6952,
      "Ġhandlar": 6953,
      "ĠhevÃ°i": 6954,
      "Ġfollow": 6955,
      "Ġfel": 6956,
      "Ġsteg": 6957,
      "fulle": 6958,
      "Ġpati": 6959,
      "Ġmax": 6960,
      "Ġdown": 6961,
      "Ġstimu": 6962,
      "Ġhau": 6963,
      "Ġgeneral": 6964,
      "ĠdrÃ¸m": 6965,
      "ĠsjÃ¤lv": 6966,
      "sions": 6967,
      "ĠsÃ¸t": 6968,
      "row": 6969,
      ".M": 6970,
      "Â²": 6971,
      "fritt": 6972,
      "ĠBlack": 6973,
      "Ġegnet": 6974,
      "Ġgiven": 6975,
      "ĠPra": 6976,
      "Ġprovid": 6977,
      "Ġshow": 6978,
      "ĠNed": 6979,
      "Ġkonkrete": 6980,
      "Ġordin": 6981,
      "Ġsmitte": 6982,
      "ĠMidt": 6983,
      "Ġnettsteder": 6984,
      "In": 6985,
      "Ġudvik": 6986,
      "dyr": 6987,
      "Ġsuc": 6988,
      "kinum": 6989,
      "Ġplanlagt": 6990,
      "ndring": 6991,
      "Ġald": 6992,
      "ĠKlikk": 6993,
      "Ġmetoder": 6994,
      "-Ã¥r": 6995,
      "Ã¸en": 6996,
      "bÃ¸r": 6997,
      "view": 6998,
      "tim": 6999,
      "Ġborte": 7000,
      "ĠRomsdal": 7001,
      "ĠByg": 7002,
      "ĠKina": 7003,
      "Ġkapasitet": 7004,
      "Ġkult": 7005,
      "Ġigang": 7006,
      "TER": 7007,
      "Ġtilta": 7008,
      "Ġlim": 7009,
      "bland": 7010,
      "Ġlede": 7011,
      "Ġutval": 7012,
      "jet": 7013,
      "ĠÃ¸vrige": 7014,
      "Ġfremtiden": 7015,
      "Ġseksu": 7016,
      "livet": 7017,
      "ĠAnders": 7018,
      "ĠAre": 7019,
      "Ġbetyder": 7020,
      "sju": 7021,
      "ĠNok": 7022,
      "hv": 7023,
      "Ġbilete": 7024,
      "Ġbod": 7025,
      "Ġfrokost": 7026,
      "Ġmad": 7027,
      "Ġthen": 7028,
      "Ġguide": 7029,
      "SS": 7030,
      "gde": 7031,
      "Ġhistorien": 7032,
      "Ġinstal": 7033,
      "gong": 7034,
      "Ġklage": 7035,
      "Ã©r": 7036,
      "squ": 7037,
      "Ġbeskr": 7038,
      "Ġdelar": 7039,
      "Ġdaa": 7040,
      "Ġtids": 7041,
      "Ġslot": 7042,
      "Ġtilpasset": 7043,
      "selen": 7044,
      "Ġpengar": 7045,
      "hund": 7046,
      "Ġfremover": 7047,
      "Ġgjev": 7048,
      "lering": 7049,
      "ĠstÃ¸tter": 7050,
      "Ġordet": 7051,
      "sdepartementet": 7052,
      "Ġsmart": 7053,
      "ĠDermed": 7054,
      "Ġgjeng": 7055,
      "stemer": 7056,
      "ect": 7057,
      "lÃ¸sning": 7058,
      "Ġinfo": 7059,
      "ĠvÃ¡": 7060,
      "splanen": 7061,
      "Ġgenera": 7062,
      "Ġvanleg": 7063,
      "Ġferd": 7064,
      "Ġprim": 7065,
      "Ġressurser": 7066,
      "sval": 7067,
      "sie": 7068,
      "Ġplasse": 7069,
      "ĠBod": 7070,
      "okies": 7071,
      "Ġidentit": 7072,
      "Ġavi": 7073,
      "Ġsover": 7074,
      "sul": 7075,
      "Ġfyrste": 7076,
      "Ġuniversitet": 7077,
      "Ġeins": 7078,
      "sitet": 7079,
      "ĠDav": 7080,
      "Ġvisste": 7081,
      "jord": 7082,
      "ĠQu": 7083,
      "Ġdomi": 7084,
      "Ġteori": 7085,
      "ĠRÃ¥d": 7086,
      "Ġstudi": 7087,
      "Ġgla": 7088,
      "Ġutsatt": 7089,
      "Ġdigit": 7090,
      "cr": 7091,
      "Ġwi": 7092,
      "Ġgerne": 7093,
      "chi": 7094,
      "ĠSent": 7095,
      "ordningen": 7096,
      "ton": 7097,
      "ĠKort": 7098,
      "ĠslÃ¥r": 7099,
      "undersÃ¸": 7100,
      "ology": 7101,
      "ĠKommun": 7102,
      "Ġhad": 7103,
      "Ġfaglig": 7104,
      "Ļ¥": 7105,
      "Ġnorge": 7106,
      "Ġgleder": 7107,
      "Ġsang": 7108,
      "plassen": 7109,
      "Ġkamera": 7110,
      "Ġple": 7111,
      "Ġventer": 7112,
      "ĠRog": 7113,
      "Ġskulde": 7114,
      "ĠÃ¦t": 7115,
      "Ġpakke": 7116,
      "ĠVÃ¥": 7117,
      "Ġmedisi": 7118,
      "ĠSP": 7119,
      "Ġexpe": 7120,
      "Ð°": 7121,
      "Ġfelag": 7122,
      "ney": 7123,
      "Ġsoci": 7124,
      "Ġfigur": 7125,
      "Ġvinteren": 7126,
      "Ġtilsyn": 7127,
      "stov": 7128,
      "emien": 7129,
      "ĠmÃ¸n": 7130,
      "._": 7131,
      "ĠJac": 7132,
      "Ã¦lde": 7133,
      "\")": 7134,
      "Ġgott": 7135,
      "Ġnaturlige": 7136,
      "Ġdimen": 7137,
      "Ġmetode": 7138,
      "Ġfaktorer": 7139,
      "IV": 7140,
      "ond": 7141,
      "Ġdansk": 7142,
      "Ġopen": 7143,
      "etter": 7144,
      "Ġmont": 7145,
      "zation": 7146,
      "ĠDeretter": 7147,
      "blemer": 7148,
      "ĠdÃ¸r": 7149,
      "empel": 7150,
      "vard": 7151,
      "stol": 7152,
      "Ġbehandlinge": 7153,
      "ĠException": 7154,
      "Ġbehandlingen": 7155,
      "iendom": 7156,
      "Ġsil": 7157,
      "vande": 7158,
      "Ġplassert": 7159,
      "ĠLitt": 7160,
      "ĠfÃ¦rr": 7161,
      ".g": 7162,
      "size": 7163,
      "Ġtilskudd": 7164,
      "stig": 7165,
      "ktighet": 7166,
      "fting": 7167,
      "lÃ¸se": 7168,
      "but": 7169,
      "ĠSjekk": 7170,
      "ĠSkj": 7171,
      "gjÃ¸re": 7172,
      "eim": 7173,
      "ĠFot": 7174,
      "Ġleser": 7175,
      "ube": 7176,
      "lens": 7177,
      "ttelse": 7178,
      "holdning": 7179,
      "forening": 7180,
      "Ġpolitikk": 7181,
      "leikar": 7182,
      "bilde": 7183,
      "Ġeli": 7184,
      "Ġlivs": 7185,
      "Ġseie": 7186,
      "Ġkalt": 7187,
      "styrr": 7188,
      "soft": 7189,
      "Ġband": 7190,
      "ept": 7191,
      "stoffer": 7192,
      ".t": 7193,
      "ĠPla": 7194,
      "stÃ½": 7195,
      "Ġinteresser": 7196,
      "Ġcount": 7197,
      "Ġanmeldelser": 7198,
      "rapp": 7199,
      "alth": 7200,
      "ĠAL": 7201,
      "ĠstaÃ°": 7202,
      "IK": 7203,
      "Ġegenskaper": 7204,
      "ĠmÃ¸tet": 7205,
      "Ã¤ller": 7206,
      "Ġutfordring": 7207,
      "Ġspenn": 7208,
      "-H": 7209,
      "Ġdokumentasjon": 7210,
      "ĠtÃ¤": 7211,
      "Ġrad": 7212,
      "Ġavgjer": 7213,
      "Ġinfra": 7214,
      "ĠhjÃ¦lpe": 7215,
      "emedlem": 7216,
      "ndÃ¸rs": 7217,
      "ĠNAV": 7218,
      "Ġbyrja": 7219,
      "stak": 7220,
      "bran": 7221,
      "work": 7222,
      "ĠsÃ¤tt": 7223,
      "Ġsunn": 7224,
      "Ġcamp": 7225,
      "boÃ°": 7226,
      "ĠÃ¸ver": 7227,
      "NING": 7228,
      "Ġinstalla": 7229,
      "leika": 7230,
      "Ġforretning": 7231,
      "ĠSpill": 7232,
      "ĠFredrik": 7233,
      "Ġsingle": 7234,
      "ĠArti": 7235,
      "Ġtilbyder": 7236,
      "Ġappro": 7237,
      "ĠFigur": 7238,
      "ĠFÃ¸rste": 7239,
      "fald": 7240,
      "leres": 7241,
      "Ġdobbelt": 7242,
      "Ġvilde": 7243,
      "ries": 7244,
      "ause": 7245,
      "ĠSV": 7246,
      "Ã¤ng": 7247,
      "satsen": 7248,
      "ĠbÃ¦Ã°i": 7249,
      "Ġsidste": 7250,
      "Ġwor": 7251,
      "nat": 7252,
      "settelse": 7253,
      "selskap": 7254,
      "Ġtext": 7255,
      "ollar": 7256,
      "ggjar": 7257,
      "oulette": 7258,
      "Ġque": 7259,
      "ĠSw": 7260,
      "Ġselger": 7261,
      "df": 7262,
      "ail": 7263,
      "Ġinteressert": 7264,
      "Ġgenerelle": 7265,
      "Ġrente": 7266,
      "EF": 7267,
      "via": 7268,
      "Ġdatama": 7269,
      "Ġdelvis": 7270,
      "ĠBjÃ¸rn": 7271,
      "Ġcontai": 7272,
      "Ġerfar": 7273,
      "ĠFro": 7274,
      "gÃ¥ande": 7275,
      "Ġutsikt": 7276,
      "Ġwould": 7277,
      "vingar": 7278,
      "ĠfÃ³l": 7279,
      "drer": 7280,
      "elo": 7281,
      "ross": 7282,
      "Ġtrai": 7283,
      "()ĊĊ": 7284,
      "Ġlover": 7285,
      "Ġerror": 7286,
      "Ġmamma": 7287,
      "sminister": 7288,
      "ĠPrÃ¸": 7289,
      "Ġkjenne": 7290,
      "Ã¶k": 7291,
      "hage": 7292,
      "ĠMai": 7293,
      "Ġkreft": 7294,
      "skatt": 7295,
      "Ġneder": 7296,
      "lefonen": 7297,
      "ĠStyret": 7298,
      "ĠBal": 7299,
      "teres": 7300,
      "Ġunderstre": 7301,
      "ĠMand": 7302,
      "medi": 7303,
      "Ġgjeldende": 7304,
      "sterer": 7305,
      "ĠOb": 7306,
      "Ġmotstand": 7307,
      "ĠÃ¾es": 7308,
      "stor": 7309,
      "Ġnamn": 7310,
      "Ġumiddelbart": 7311,
      "Ġpan": 7312,
      "erens": 7313,
      "Ġannat": 7314,
      "ndum": 7315,
      "ĠUniversitetet": 7316,
      "venn": 7317,
      "ĠlÃ¸p": 7318,
      "linum": 7319,
      "ĠRing": 7320,
      "jud": 7321,
      "Ġmelde": 7322,
      "sÃŃ": 7323,
      "srett": 7324,
      "Ġhuske": 7325,
      "ĠVerd": 7326,
      "jur": 7327,
      "ĠrÃ¦kke": 7328,
      "Ġkne": 7329,
      "brudd": 7330,
      "Ġungdoms": 7331,
      "Ġtilpasse": 7332,
      "Ġflyt": 7333,
      "Ġinformasjonen": 7334,
      "teret": 7335,
      "Ġstei": 7336,
      "}\\": 7337,
      "AB": 7338,
      "ĠÃĺr": 7339,
      "ĠMark": 7340,
      "jÃ³Ã°": 7341,
      "Ġuken": 7342,
      "Ġener": 7343,
      "ĠBarn": 7344,
      "Ġrammer": 7345,
      "hin": 7346,
      "box": 7347,
      "melser": 7348,
      "ĠfÃ¶rsta": 7349,
      "Ġkant": 7350,
      "zi": 7351,
      "ĠFolk": 7352,
      "IC": 7353,
      "Ġcar": 7354,
      "Ġgjester": 7355,
      "Ġutvide": 7356,
      "Ġfak": 7357,
      "Ġruti": 7358,
      "Ġslut": 7359,
      "egne": 7360,
      "Ġmassa": 7361,
      "ekst": 7362,
      "gan": 7363,
      "Ġloy": 7364,
      "ĠforÃ¥rsa": 7365,
      "ĠNÃ¤r": 7366,
      "gning": 7367,
      "Ġdeilig": 7368,
      "ffic": 7369,
      "Ġmedia": 7370,
      "jt": 7371,
      "rix": 7372,
      "Ġelektronisk": 7373,
      "Â»Ċ": 7374,
      "Ġreak": 7375,
      "Ġauke": 7376,
      "Ġmail": 7377,
      "ĠbÃ³": 7378,
      "Ġbruken": 7379,
      "ature": 7380,
      "Ġbefi": 7381,
      "Ġ)": 7382,
      "Ġpasienten": 7383,
      "tales": 7384,
      "mte": 7385,
      "ĠLog": 7386,
      "ĠmiÃ°": 7387,
      "Ġspurt": 7388,
      "arning": 7389,
      "ae": 7390,
      "Ġkvalitete": 7391,
      "Ġsesongen": 7392,
      "stÃ¤ll": 7393,
      "ĠEN": 7394,
      "lerne": 7395,
      "lerte": 7396,
      "Ġsvarte": 7397,
      "baserte": 7398,
      "ĠHon": 7399,
      "stal": 7400,
      "ĠvÃ¦lge": 7401,
      "Ġtve": 7402,
      "Ġassi": 7403,
      "roid": 7404,
      "Ġrapporter": 7405,
      "ĠRegion": 7406,
      "leng": 7407,
      "do": 7408,
      "kontroll": 7409,
      "Ġthro": 7410,
      "-K": 7411,
      "ĠPaul": 7412,
      "Ġ................................................................": 7413,
      "-h": 7414,
      "Ġfrivillige": 7415,
      "vandr": 7416,
      "Ġmangel": 7417,
      "Ġkong": 7418,
      "Ġmus": 7419,
      "Ġmom": 7420,
      "Ã¸ver": 7421,
      "ĠfÃ¦rre": 7422,
      "ĠKarl": 7423,
      "Ġkvaliteten": 7424,
      "arbet": 7425,
      "ĠmÃ¸gu": 7426,
      "Ġbestemte": 7427,
      "ĠpÃ¥ver": 7428,
      "kep": 7429,
      "Ġbakte": 7430,
      "Ġhaft": 7431,
      "Ġregionale": 7432,
      "-til": 7433,
      "ĠstÃ³r": 7434,
      "Ġhelp": 7435,
      "ĠHerre": 7436,
      "ĠEtt": 7437,
      "Ġforsikring": 7438,
      ".e": 7439,
      "Ġregionen": 7440,
      "ĠRett": 7441,
      "ĠInformasjon": 7442,
      "etning": 7443,
      "Ġopprinne": 7444,
      "================": 7445,
      ".i": 7446,
      "oÄĳ": 7447,
      "Ġansi": 7448,
      "Ġvaksi": 7449,
      "Ġstaden": 7450,
      "nering": 7451,
      "Ġsommar": 7452,
      "Ġuttan": 7453,
      "Ġdags": 7454,
      "Ġkonge": 7455,
      "ĠutfÃ¸re": 7456,
      "ĠstÃ¸rst": 7457,
      "steder": 7458,
      "skum": 7459,
      "Ġambi": 7460,
      "sting": 7461,
      "ndelig": 7462,
      "ya": 7463,
      "Ġvatn": 7464,
      "Ġtlf": 7465,
      "ĠYork": 7466,
      ":)Ċ": 7467,
      "Ġbetaler": 7468,
      "Ġjuridi": 7469,
      "Ġelse": 7470,
      "ĠAnna": 7471,
      "ĠChristian": 7472,
      "ĠjÃ¡": 7473,
      "Ġheldur": 7474,
      "Ġendret": 7475,
      "ĠUniversity": 7476,
      "fÃ¸rte": 7477,
      "gjort": 7478,
      "skaber": 7479,
      "mans": 7480,
      "Ġettersom": 7481,
      "ĠStei": 7482,
      "ĠKristians": 7483,
      "Ġsove": 7484,
      "Ġdvs": 7485,
      "ĠSven": 7486,
      "Ġspins": 7487,
      "nami": 7488,
      "Ġkonsent": 7489,
      "ĠHÃ¤r": 7490,
      "Ġselvsagt": 7491,
      "Ġsikt": 7492,
      "kob": 7493,
      "Ġsaka": 7494,
      "Ġbytte": 7495,
      "ĠVol": 7496,
      "Ġfordeler": 7497,
      "ĠBÃ¸r": 7498,
      "sha": 7499,
      "ĠÃ¸nskjer": 7500,
      "ĠnÃ¥gra": 7501,
      "lingar": 7502,
      "Ġsymbo": 7503,
      "elÃ¸p": 7504,
      "ĠMini": 7505,
      "Ġsuksess": 7506,
      "haug": 7507,
      "Ġhardt": 7508,
      "Ġgift": 7509,
      "Ġboken": 7510,
      "Ġsymptomer": 7511,
      "ĠÃ¥tte": 7512,
      "ĠtÃ½": 7513,
      "Ġskar": 7514,
      "ministra": 7515,
      "Ġforholdet": 7516,
      "ĠTab": 7517,
      "Ġjente": 7518,
      "hr": 7519,
      "ĠCor": 7520,
      "ĠskjÃ¸nn": 7521,
      "ĠaktÃ¸rer": 7522,
      "ĠsÃŃÃ°": 7523,
      "ria": 7524,
      "FO": 7525,
      "Ġfom": 7526,
      ".T": 7527,
      "Ġkilometer": 7528,
      "ordaland": 7529,
      "okolade": 7530,
      "ades": 7531,
      "ĠavgjÃ¸r": 7532,
      "ĠInternett": 7533,
      "Ġvekk": 7534,
      "tingelser": 7535,
      "ĠBon": 7536,
      "EC": 7537,
      "ĠSide": 7538,
      "ktiviteter": 7539,
      "slova": 7540,
      "ĠStyr": 7541,
      "Ã¸res": 7542,
      "Ġendnu": 7543,
      "Ġbildene": 7544,
      "Ġ__": 7545,
      "skjema": 7546,
      "ĠOlsen": 7547,
      "produkter": 7548,
      "Ġstam": 7549,
      "Ġtanker": 7550,
      "bank": 7551,
      "Ġsvarer": 7552,
      "Ġseina": 7553,
      "Ġbehage": 7554,
      "ĠSÃ¡": 7555,
      "Ġplanlegging": 7556,
      "gis": 7557,
      "Ġsina": 7558,
      "Ġmeta": 7559,
      "Ġforsknings": 7560,
      "Ġbutikker": 7561,
      "agement": 7562,
      "sutvikling": 7563,
      "Ġskabe": 7564,
      "slan": 7565,
      ".\"Ċ": 7566,
      "Ġhigh": 7567,
      "Ġtrekke": 7568,
      "bum": 7569,
      "Ġfunn": 7570,
      "bibli": 7571,
      "Ġberedskap": 7572,
      "Ġfordelt": 7573,
      "Ġkonsert": 7574,
      ".A": 7575,
      "erett": 7576,
      "ĠEnergi": 7577,
      "niske": 7578,
      "ey": 7579,
      "ĠSid": 7580,
      "vask": 7581,
      "gerÃ°": 7582,
      "jern": 7583,
      "Ġvarierer": 7584,
      "Ġabonne": 7585,
      "ĠLund": 7586,
      "ingo": 7587,
      "Ġpassa": 7588,
      "Ġkriti": 7589,
      "ĠDin": 7590,
      "matikk": 7591,
      "Ġsch": 7592,
      "ĠChe": 7593,
      "Ġveiledning": 7594,
      "kultur": 7595,
      "Ġhin": 7596,
      "SD": 7597,
      "-en": 7598,
      "ĠðŁĺ": 7599,
      "Ġmangfold": 7600,
      "ĠhÃ¸rt": 7601,
      "Ġingredien": 7602,
      "Ġeigne": 7603,
      "OD": 7604,
      "ĠKÃ¸benhavn": 7605,
      "lassi": 7606,
      "Ġrunde": 7607,
      "ĠFÃ¸roya": 7608,
      "ĠpÃ¥pe": 7609,
      "mda": 7610,
      "Ġhage": 7611,
      "Ġkombinasjon": 7612,
      "udi": 7613,
      "hÃ¥ll": 7614,
      "SL": 7615,
      "ĠbehÃ¶ver": 7616,
      "udde": 7617,
      "Ġfinna": 7618,
      "ĠRÃ¸": 7619,
      "volu": 7620,
      "lÃŃ": 7621,
      "ĠkÃ¸b": 7622,
      "ĠAN": 7623,
      "-C": 7624,
      "barhet": 7625,
      "ĠIta": 7626,
      "ĠJacob": 7627,
      "ĠGlo": 7628,
      "rÃ¸ndelag": 7629,
      "fast": 7630,
      "ĠSjÃ¸l": 7631,
      "Ġopphold": 7632,
      "Ġunik": 7633,
      "Ġskyl": 7634,
      "ead": 7635,
      "vari": 7636,
      "vinst": 7637,
      "ĠFamil": 7638,
      "ĠNÃ¦ring": 7639,
      "siness": 7640,
      "Ã¦k": 7641,
      "Ġengasje": 7642,
      "ĠInge": 7643,
      "lande": 7644,
      "ĠbrÃ¸d": 7645,
      "ĠRy": 7646,
      "sprodu": 7647,
      "Ġplanter": 7648,
      "grunnen": 7649,
      "ĠPol": 7650,
      "fyri": 7651,
      "lum": 7652,
      "Ġrej": 7653,
      "ĠÃ¸kning": 7654,
      "ĠFun": 7655,
      "Ġstopp": 7656,
      "ĠAp": 7657,
      "ĠsÃ©": 7658,
      "eier": 7659,
      "Ġvannet": 7660,
      "ĠForm": 7661,
      "ĠUngdom": 7662,
      "ĠmiljÃ¸e": 7663,
      "Ġverda": 7664,
      "Ġborg": 7665,
      "Ġsamarbeidet": 7666,
      "-L": 7667,
      "Ġcurrent": 7668,
      "belen": 7669,
      "nfo": 7670,
      "Ġkorrekt": 7671,
      "Ġsatte": 7672,
      "Ġtradisjonelle": 7673,
      "Ġirri": 7674,
      "ĠStÃ¸": 7675,
      "stÃ¤": 7676,
      "ĠbrÃ¸": 7677,
      "Ġtypisk": 7678,
      "Ġerb": 7679,
      "Ġfang": 7680,
      "klÃ¦ring": 7681,
      "ÃĺR": 7682,
      "retning": 7683,
      "oper": 7684,
      "ritan": 7685,
      "ĠhÃ¥ndtere": 7686,
      "wa": 7687,
      "ĠIfÃ¸lge": 7688,
      "Ġspesiell": 7689,
      "Ġfront": 7690,
      "ĠThomas": 7691,
      "Ġelevar": 7692,
      "Ġbehandle": 7693,
      "feltet": 7694,
      "ĠUN": 7695,
      "Ġklubben": 7696,
      "Ġutseende": 7697,
      "ĠStudent": 7698,
      "ente": 7699,
      "egar": 7700,
      "ydde": 7701,
      "Ã¡la": 7702,
      "Ã¸yde": 7703,
      "eringe": 7704,
      "ĠfÃ¶l": 7705,
      "Ġtilbod": 7706,
      "Ġmillionar": 7707,
      "Ġerstat": 7708,
      "fle": 7709,
      "Ġheima": 7710,
      "Ġkilde": 7711,
      "ĠTromsÃ¸": 7712,
      "ĠstrÃ¸": 7713,
      "ĠHold": 7714,
      "Ġmidte": 7715,
      "Ġrespekt": 7716,
      "Ġhot": 7717,
      "ĠHard": 7718,
      "Ġway": 7719,
      "Ġenhet": 7720,
      "Ġarkitekt": 7721,
      "tivet": 7722,
      "Ġph": 7723,
      "Ġregjeringen": 7724,
      "-P": 7725,
      "ĠRam": 7726,
      "Ġvell": 7727,
      "!!Ċ": 7728,
      "Ġdepartementet": 7729,
      "ĠbÃ¡": 7730,
      "Ġliter": 7731,
      "Ġtilgjengelige": 7732,
      "lien": 7733,
      "Ġaust": 7734,
      "digt": 7735,
      "irektÃ¸r": 7736,
      "Ġtilsvar": 7737,
      "ĠstÃ¥l": 7738,
      "Ġbutikken": 7739,
      "Ġrisikoen": 7740,
      "ĠbÃ½": 7741,
      "Ġwhat": 7742,
      "eringen": 7743,
      "Ġbustad": 7744,
      "arbejd": 7745,
      "ĠgrÃ¸nne": 7746,
      "Ġutbygging": 7747,
      "ĠkjÃ¸tt": 7748,
      "ĠinngÃ¥r": 7749,
      "kommende": 7750,
      "oking": 7751,
      "spri": 7752,
      "Ġnyhet": 7753,
      "dy": 7754,
      "day": 7755,
      "visjon": 7756,
      "Ġidentite": 7757,
      "ĠLikevel": 7758,
      "utstyr": 7759,
      "Ġfamili": 7760,
      "Ġforslaget": 7761,
      "histori": 7762,
      "IR": 7763,
      "ĠfÃ¸dsel": 7764,
      "Ġbein": 7765,
      "cti": 7766,
      "Ġtvers": 7767,
      "ĠdirektÃ¸r": 7768,
      "unar": 7769,
      "ĠÃ¸st": 7770,
      "Ġinnovasjon": 7771,
      "byen": 7772,
      "vendig": 7773,
      "ĠHenrik": 7774,
      ".Â»Ċ": 7775,
      "ĠNOK": 7776,
      "ĠÃĨ": 7777,
      "ĠDesse": 7778,
      "ĠDepartementet": 7779,
      "Ġdisc": 7780,
      "Ġforbered": 7781,
      "Ġvelferd": 7782,
      "ĠundersÃ¸kelse": 7783,
      "Ġbeskriver": 7784,
      "Ġadministr": 7785,
      "ceret": 7786,
      "Ġkurset": 7787,
      "Ġprofil": 7788,
      "Ġdage": 7789,
      "Ġesti": 7790,
      "Ġpedagogi": 7791,
      "Ġeffektive": 7792,
      "Ġbeskyttelse": 7793,
      "Ġhyl": 7794,
      "Ġendt": 7795,
      ".get": 7796,
      "lagte": 7797,
      "yrd": 7798,
      "Ġleat": 7799,
      "Ġsamtale": 7800,
      "Ġmidten": 7801,
      "ĠennÃ": 7802,
      "ĠennÃ¥": 7803,
      "Ġvalues": 7804,
      "ĠGran": 7805,
      "Ġprofi": 7806,
      "Ġdekke": 7807,
      "Ġdessa": 7808,
      "valtning": 7809,
      "cing": 7810,
      "ĠniÃ°ur": 7811,
      "atar": 7812,
      "Ġpersonopp": 7813,
      "Ġsir": 7814,
      "behÃ¸r": 7815,
      "Ġrettigheter": 7816,
      "Ġgruppen": 7817,
      "Ġhurtig": 7818,
      "kets": 7819,
      "Ġunike": 7820,
      "ĠUn": 7821,
      "Ġbibliotek": 7822,
      "Ã¦lles": 7823,
      "Ġhopp": 7824,
      "kurran": 7825,
      "visningen": 7826,
      "Ã¸rre": 7827,
      "Ġshould": 7828,
      "ĠImp": 7829,
      "Ġskjedde": 7830,
      "ĠVen": 7831,
      "ĠovervÃ¥": 7832,
      "Ġfann": 7833,
      "frem": 7834,
      "ĠforsÃ¸k": 7835,
      "ĠKol": 7836,
      "ĠFlo": 7837,
      "seet": 7838,
      "Ġeksklu": 7839,
      "Ġdessverre": 7840,
      "Ġkemur": 7841,
      "Ġperspektiv": 7842,
      "Ġforskjell": 7843,
      "Ä¯": 7844,
      "skraft": 7845,
      "ĠmÃ¸tte": 7846,
      "vesen": 7847,
      "Ġvurderes": 7848,
      "bd": 7849,
      "ĠkjÃ¸pte": 7850,
      "Ð¾": 7851,
      "Ġuttale": 7852,
      "eksten": 7853,
      "ekk": 7854,
      "Ġlat": 7855,
      "tider": 7856,
      "Ġfullstendig": 7857,
      "Ġrygg": 7858,
      "ortet": 7859,
      "Ġdels": 7860,
      "rel": 7861,
      "lla": 7862,
      "Ġkyst": 7863,
      "Ġskipa": 7864,
      "Ġrege": 7865,
      "Ġstrand": 7866,
      "teren": 7867,
      "ĠLÃ¥": 7868,
      "Ġtilstede": 7869,
      "Ġteksten": 7870,
      "Ġhit": 7871,
      "Phone": 7872,
      "Ġkrit": 7873,
      "behand": 7874,
      "fug": 7875,
      "ĠHvem": 7876,
      "Ġspur": 7877,
      "redi": 7878,
      "stance": 7879,
      "Ġfjerd": 7880,
      "ĠMicro": 7881,
      "Ð¸": 7882,
      "Ġbetalt": 7883,
      "ĠnÃ¦rme": 7884,
      "ĠMedlem": 7885,
      "Ġroman": 7886,
      "nskape": 7887,
      "Ġperiod": 7888,
      "stering": 7889,
      "maskin": 7890,
      "ĠPart": 7891,
      ".K": 7892,
      "Ġarrangert": 7893,
      "Ġarranger": 7894,
      "bbe": 7895,
      "Ġimage": 7896,
      "mente": 7897,
      "Ġoverve": 7898,
      "olje": 7899,
      "omme": 7900,
      "Ġdekker": 7901,
      "Ġlandskap": 7902,
      "Ġspilleautomat": 7903,
      "yÃ°": 7904,
      "Ġframover": 7905,
      "ĠmiljÃ¸et": 7906,
      "Ġalternative": 7907,
      "legges": 7908,
      "Ġorgan": 7909,
      "skop": 7910,
      "\".Ċ": 7911,
      "arti": 7912,
      "Ġdifferent": 7913,
      "Ġplut": 7914,
      "ĠCity": 7915,
      "ĠVold": 7916,
      "orth": 7917,
      "Ġforster": 7918,
      "folkning": 7919,
      "ttur": 7920,
      "smeld": 7921,
      "kontor": 7922,
      "Ġkontinuer": 7923,
      "ĠLÃ¤": 7924,
      "niÃ°": 7925,
      "Ġmost": 7926,
      "lyd": 7927,
      "nari": 7928,
      "Ġfremtid": 7929,
      "Ġkalles": 7930,
      "ĠStand": 7931,
      "habilitering": 7932,
      "Ġpei": 7933,
      "Ġfinder": 7934,
      "lelse": 7935,
      "ĠHvad": 7936,
      "ĠChar": 7937,
      "Ġsemi": 7938,
      "gja": 7939,
      "barn": 7940,
      "Ġoffisi": 7941,
      "Ġfylkes": 7942,
      "nie": 7943,
      "Ġpresentert": 7944,
      "butikk": 7945,
      "/t": 7946,
      "ndex": 7947,
      "Ġpresi": 7948,
      "Ġtager": 7949,
      "Ġlette": 7950,
      "ĠRussland": 7951,
      "fÃ¦r": 7952,
      "-in": 7953,
      "areal": 7954,
      "onent": 7955,
      "Ġvars": 7956,
      "bak": 7957,
      "ĠspÃ¸rr": 7958,
      "Ġsepar": 7959,
      "lÃ¦r": 7960,
      "ĠHordaland": 7961,
      "Ġafter": 7962,
      "Ġlykke": 7963,
      "ĠvÃ¥ra": 7964,
      "Ġsne": 7965,
      "Ġgevin": 7966,
      "emÃ¥l": 7967,
      "Ġstab": 7968,
      "ĠNav": 7969,
      "Ġfaktor": 7970,
      "Ġfick": 7971,
      "Ġbuss": 7972,
      "Ġfrivillig": 7973,
      "tics": 7974,
      "gÃ¥ng": 7975,
      "Ġunderstand": 7976,
      "ĠSn": 7977,
      "Ġpal": 7978,
      "sset": 7979,
      "stiltak": 7980,
      "ĠAnaly": 7981,
      "gsmÃ¥l": 7982,
      "fli": 7983,
      "skade": 7984,
      "ĠnÃ¸ye": 7985,
      "ndelsen": 7986,
      "Ġinternasjonalt": 7987,
      "!ĊĊ": 7988,
      "vart": 7989,
      "ĠFylkesmannen": 7990,
      "liggen": 7991,
      "ĠBlant": 7992,
      "elingen": 7993,
      "Ġkat": 7994,
      "Ġregjering": 7995,
      "Ġlest": 7996,
      "Ġmany": 7997,
      "Ġmodeller": 7998,
      "nsy": 7999,
      "Ġtirsdag": 8000,
      "-av": 8001,
      "steren": 8002,
      "ĠPort": 8003,
      "Ġsqu": 8004,
      "ĠGrunn": 8005,
      "ume": 8006,
      "Ġhjul": 8007,
      "ĠMorten": 8008,
      "py": 8009,
      "styre": 8010,
      "oritet": 8011,
      "kÃ¸": 8012,
      "ating": 8013,
      "Ġskad": 8014,
      "ound": 8015,
      "laten": 8016,
      "AK": 8017,
      "Ġforma": 8018,
      "Ġstrid": 8019,
      "partiet": 8020,
      "Ġovenfor": 8021,
      "ĠDavid": 8022,
      "ĠThere": 8023,
      "ĠLov": 8024,
      "DF": 8025,
      "Ã¦tlan": 8026,
      "Ġleveres": 8027,
      "Ġannar": 8028,
      "ĠMac": 8029,
      "jack": 8030,
      "navn": 8031,
      "Ġhjemmet": 8032,
      "strand": 8033,
      "ĠvideregÃ¥ende": 8034,
      "ĠgÃ³Ã°": 8035,
      "Ġeleg": 8036,
      "Ġpus": 8037,
      "tial": 8038,
      "hk": 8039,
      "Ġsettes": 8040,
      "Ġkontrakt": 8041,
      "Ġutlandet": 8042,
      "Ġhjemmeside": 8043,
      "Ġaspe": 8044,
      "ĠsjÃ¸lve": 8045,
      "ĠlÃ¸g": 8046,
      "Ġvarit": 8047,
      "ĠSÃ¦": 8048,
      "inst": 8049,
      "ĠUnit": 8050,
      "-c": 8051,
      "stic": 8052,
      "ndin": 8053,
      "ards": 8054,
      "Ġnettle": 8055,
      "verte": 8056,
      "cin": 8057,
      "Ġstate": 8058,
      "Ġfyrr": 8059,
      "ĠPeder": 8060,
      "Ã¸rsel": 8061,
      "ĠKam": 8062,
      "ĠSog": 8063,
      "ĠHarald": 8064,
      "ĠaktÃ¸r": 8065,
      "stivalen": 8066,
      "ĠhÃ¶g": 8067,
      "ĠðŁĻĤĊ": 8068,
      "fund": 8069,
      "Ġforfatt": 8070,
      "ĠSim": 8071,
      "uri": 8072,
      "Ġinspirasjon": 8073,
      "Ġaktuelt": 8074,
      "gaven": 8075,
      "Ġenor": 8076,
      "Ġvedtatt": 8077,
      "Ġrimelig": 8078,
      "stÃ¸tte": 8079,
      "latelse": 8080,
      "Ġdekor": 8081,
      "Ġmunn": 8082,
      "ĠhjÃ¦lp": 8083,
      "gur": 8084,
      "Ġbenytter": 8085,
      "Ġmik": 8086,
      "Ġforelig": 8087,
      "bÃºg": 8088,
      "Ġmale": 8089,
      "Ġbeskytte": 8090,
      "sprosessen": 8091,
      "ĠpÃ¥ske": 8092,
      "Ġvinn": 8093,
      "Ġangi": 8094,
      "cis": 8095,
      "Ġkommunal": 8096,
      "tad": 8097,
      "Ġstemmer": 8098,
      "ĠKun": 8099,
      "sant": 8100,
      "ndu": 8101,
      "ural": 8102,
      "ÃĦ": 8103,
      "Ġsupport": 8104,
      "Ġtilbys": 8105,
      "ĠstÃ¦r": 8106,
      "ĠMaster": 8107,
      "Ġlandets": 8108,
      "Ġplace": 8109,
      "ĠAar": 8110,
      "slig": 8111,
      "Ġsjo": 8112,
      "Ġaff": 8113,
      "programmet": 8114,
      "Ġist": 8115,
      "Ġrepresenterer": 8116,
      "Ġsker": 8117,
      "bytte": 8118,
      "Ġeksempler": 8119,
      "ĠtilhÃ¸": 8120,
      "ĠWeb": 8121,
      "nande": 8122,
      "]ĊĊ": 8123,
      "ĠTÃ¸": 8124,
      "Ġkommunar": 8125,
      "skriv": 8126,
      "Ġulik": 8127,
      "Ġtverr": 8128,
      "Ġkni": 8129,
      "ksling": 8130,
      "Ġoppgave": 8131,
      "Ġkapital": 8132,
      "lemark": 8133,
      "-m": 8134,
      "skifti": 8135,
      "ĠforegÃ¥r": 8136,
      "ĠfÃŃ": 8137,
      "ĠAlex": 8138,
      "usa": 8139,
      "ĠAker": 8140,
      "ĠTÃ¡": 8141,
      "Ġomgang": 8142,
      "Ġspiser": 8143,
      "Ġforsiktig": 8144,
      "Ġtitt": 8145,
      "Ġteke": 8146,
      "ĠKrist": 8147,
      "Ġbestemme": 8148,
      "Ġrepresentant": 8149,
      "Ġlade": 8150,
      "Ġmuseum": 8151,
      "TT": 8152,
      "ever": 8153,
      "Ġkommende": 8154,
      "ÃĺS": 8155,
      "ĠspÃ¸rre": 8156,
      "Ġfloat": 8157,
      "Ġsce": 8158,
      "edal": 8159,
      "Ġallergi": 8160,
      "Ġidentitet": 8161,
      "behov": 8162,
      "Ġnyheter": 8163,
      "ression": 8164,
      "ump": 8165,
      "Ġvanskeleg": 8166,
      "ĠSjÃ": 8167,
      "bygge": 8168,
      "Ġfindes": 8169,
      "Ġ\"\"\"ĊĊ": 8170,
      "faren": 8171,
      "Ġbeskrevet": 8172,
      "Ġgrense": 8173,
      "Ġfremdeles": 8174,
      "ndende": 8175,
      "assi": 8176,
      "park": 8177,
      "ĠSjÃ¥": 8178,
      "ĠFjell": 8179,
      "Ġdikt": 8180,
      "Ġanses": 8181,
      "ĠÃ¡ri": 8182,
      "ĠforeslÃ¥r": 8183,
      "ĠNÃ¦r": 8184,
      "ntil": 8185,
      "-Ċ": 8186,
      "Ã°rum": 8187,
      "Ġessen": 8188,
      "fiske": 8189,
      "vv": 8190,
      "nnere": 8191,
      "britan": 8192,
      "Ġyngre": 8193,
      "agi": 8194,
      "para": 8195,
      "nom": 8196,
      "Ġaksje": 8197,
      "Ġdaglige": 8198,
      "ired": 8199,
      "ĠhjÃ¸r": 8200,
      "Ġses": 8201,
      "Ġplay": 8202,
      "Ġextra": 8203,
      "Ġinnholdet": 8204,
      "ĠGer": 8205,
      "ĠKal": 8206,
      "Ġtonn": 8207,
      "Ġeine": 8208,
      "Ġklarte": 8209,
      "Ġsjeld": 8210,
      "Ġuh": 8211,
      "nadene": 8212,
      "Ġdon": 8213,
      "Ġpoker": 8214,
      "ality": 8215,
      "Ġevt": 8216,
      "ures": 8217,
      "ĠFire": 8218,
      "Ġskred": 8219,
      "tok": 8220,
      "Ġuly": 8221,
      "Ġsvenske": 8222,
      "ĠhÃ¸yde": 8223,
      "fred": 8224,
      ".E": 8225,
      "skilde": 8226,
      "ĠmÃŃ": 8227,
      "Ġ---": 8228,
      "kkenet": 8229,
      "ĠSett": 8230,
      "ĠKost": 8231,
      "FF": 8232,
      "Ġrest": 8233,
      "cip": 8234,
      "HO": 8235,
      "ĠHjel": 8236,
      "right": 8237,
      "Ġpil": 8238,
      "Ġelles": 8239,
      "Ġpath": 8240,
      "Ġhensikt": 8241,
      "ĠÃ¥pner": 8242,
      "skaff": 8243,
      "-/": 8244,
      "Ġtilsy": 8245,
      "ĠfÃ¸rte": 8246,
      "Ġdevelop": 8247,
      "mbol": 8248,
      "Ġtyder": 8249,
      "ero": 8250,
      "Ġstykke": 8251,
      "ject": 8252,
      "ĠRogaland": 8253,
      "Ġtung": 8254,
      "Ġtable": 8255,
      "smet": 8256,
      "Ġminutt": 8257,
      "Ã¶n": 8258,
      "ĠgÃ¦": 8259,
      "Ġgebyr": 8260,
      "Ġmaskin": 8261,
      "departementet": 8262,
      "lyst": 8263,
      "Ġforhandling": 8264,
      "ĠleverandÃ¸r": 8265,
      "gers": 8266,
      "sforhold": 8267,
      "personer": 8268,
      "Ġfylkeskommune": 8269,
      "ĠLed": 8270,
      "ĠExp": 8271,
      "ningstid": 8272,
      "ulde": 8273,
      "ctory": 8274,
      "kani": 8275,
      "hema": 8276,
      "ĠSport": 8277,
      "jef": 8278,
      "Ġdekk": 8279,
      "Ġorganisasjoner": 8280,
      "Ġhvite": 8281,
      "Ġkopp": 8282,
      "situ": 8283,
      "Ġinteri": 8284,
      "Ġpersonen": 8285,
      "ĠIL": 8286,
      "Ġhindre": 8287,
      "Ġliksom": 8288,
      "Ġoutput": 8289,
      "marks": 8290,
      "asseng": 8291,
      "hild": 8292,
      "lÃ¸st": 8293,
      "ĠMet": 8294,
      "Ġlagd": 8295,
      "Ġarbeidsp": 8296,
      "Ġvesentlig": 8297,
      "Ġodd": 8298,
      "ĠEid": 8299,
      "agn": 8300,
      "Ġhennar": 8301,
      "ĠKari": 8302,
      "Ġhistoriske": 8303,
      "ason": 8304,
      "Ġfrakt": 8305,
      "somrÃ¥der": 8306,
      "kne": 8307,
      "Ġprakti": 8308,
      "Ġbiler": 8309,
      "rÃ½": 8310,
      "boks": 8311,
      "Ġtel": 8312,
      "lation": 8313,
      "ĠÅ": 8314,
      "Ġengang": 8315,
      "OK": 8316,
      "ĠfÃ¦": 8317,
      "Ġunn": 8318,
      "ords": 8319,
      "Ġmarknad": 8320,
      "iten": 8321,
      "Ã¡i": 8322,
      "ssenter": 8323,
      "kser": 8324,
      "ĠAug": 8325,
      "skur": 8326,
      "emer": 8327,
      "Ġglade": 8328,
      "lator": 8329,
      "tain": 8330,
      "Ġnatten": 8331,
      "Ðµ": 8332,
      "Ġsyk": 8333,
      "smidler": 8334,
      "Ġrik": 8335,
      "Ġkristne": 8336,
      "Ġbelast": 8337,
      "Ġproper": 8338,
      "Ġmoro": 8339,
      "Ġpersonal": 8340,
      "Ġkomfort": 8341,
      "Ġnylig": 8342,
      "Ġfield": 8343,
      "lam": 8344,
      "vidt": 8345,
      "Ġserie": 8346,
      "Ġansatt": 8347,
      "ĠNM": 8348,
      "bl": 8349,
      "Ġomsetning": 8350,
      "ĠTelefon": 8351,
      "Ġtrygge": 8352,
      "beth": 8353,
      "Ġfaller": 8354,
      "Den": 8355,
      "ĠEurope": 8356,
      "Ġgass": 8357,
      "Ġcle": 8358,
      "aktÃ¸r": 8359,
      "ĠHjem": 8360,
      "sked": 8361,
      "ĠEngland": 8362,
      "ppi": 8363,
      "Ġforeta": 8364,
      "-|": 8365,
      "ture": 8366,
      "Ġvoksen": 8367,
      "batten": 8368,
      "Ġarea": 8369,
      "kningen": 8370,
      "ĠTest": 8371,
      "cm": 8372,
      "Ġmit": 8373,
      "ĠÃ©g": 8374,
      "kunder": 8375,
      "isme": 8376,
      "ĠstÃ¸y": 8377,
      "Ġkomfor": 8378,
      "Ġjevn": 8379,
      "ĠKlem": 8380,
      "ĠOne": 8381,
      "utvalget": 8382,
      "Ġintensi": 8383,
      "yrt": 8384,
      "resjon": 8385,
      "Ġenheter": 8386,
      "the": 8387,
      "Ġtotale": 8388,
      "Ġstats": 8389,
      "gro": 8390,
      "vennlig": 8391,
      "Ġtapt": 8392,
      "kvÃ¦": 8393,
      "Ġleik": 8394,
      "Ġprocess": 8395,
      "Ġoffentleg": 8396,
      "stiden": 8397,
      "ĠDani": 8398,
      "ship": 8399,
      "Ġbot": 8400,
      "kers": 8401,
      "Ġpower": 8402,
      "Ġmaa": 8403,
      "Ġpeople": 8404,
      "ĠLiv": 8405,
      "ommer": 8406,
      "Ġskapa": 8407,
      "lagg": 8408,
      "ardi": 8409,
      "ĠVad": 8410,
      "Ġeventyr": 8411,
      "Ġutanfor": 8412,
      "ĠDating": 8413,
      "Ġserien": 8414,
      "ĠBygg": 8415,
      "Ġprocent": 8416,
      "Ġkommunens": 8417,
      "Ġynskjer": 8418,
      "NU": 8419,
      "Ġgrav": 8420,
      "ĠBan": 8421,
      "eiv": 8422,
      "(x": 8423,
      "Ġselskaper": 8424,
      "ĠUansett": 8425,
      "ĠTÃŃ": 8426,
      "ĠKunst": 8427,
      "andina": 8428,
      "vnet": 8429,
      ",-Ċ": 8430,
      "Ġhverdagen": 8431,
      "trÃ¦": 8432,
      "ĠFÃ¸rd": 8433,
      "uta": 8434,
      ".L": 8435,
      "Ġfrie": 8436,
      "Ġnydelig": 8437,
      "ĠfÃ¸lelser": 8438,
      "Ġrabatt": 8439,
      "Ġdanne": 8440,
      "mosf": 8441,
      "Ġgulv": 8442,
      "Ġnon": 8443,
      "samt": 8444,
      "ĠmÃ¥ske": 8445,
      "andom": 8446,
      "ĠEvent": 8447,
      "Ġpga": 8448,
      "ĠHor": 8449,
      "Ġhonum": 8450,
      "Ġsykdommer": 8451,
      "banen": 8452,
      "feransen": 8453,
      "urgi": 8454,
      "Ġoblig": 8455,
      "ĠannaÃ°": 8456,
      "Ã¥det": 8457,
      "Ġfylket": 8458,
      "Ġvirksomheten": 8459,
      "samfunn": 8460,
      "stundes": 8461,
      "lund": 8462,
      "vÃ¦relse": 8463,
      "smy": 8464,
      "ktivet": 8465,
      "ĠarbeidsmiljÃ¸": 8466,
      "kommer": 8467,
      ".[": 8468,
      "ĠmarkedsfÃ¸ring": 8469,
      "singa": 8470,
      "ilighet": 8471,
      "mming": 8472,
      "Ġbegru": 8473,
      "Ġoppn": 8474,
      "fÃ¸lgende": 8475,
      "manna": 8476,
      "kjente": 8477,
      "Ġdob": 8478,
      "vinga": 8479,
      "Ġves": 8480,
      "Ġbehandlet": 8481,
      "lesund": 8482,
      "Ġsag": 8483,
      "ĠHvilke": 8484,
      "ĠÃ¸konom": 8485,
      "Ġartikler": 8486,
      "smerter": 8487,
      "Ġslipper": 8488,
      "Ġskille": 8489,
      "Ġsykehus": 8490,
      "Ġutfordr": 8491,
      "Ġklassiske": 8492,
      "idet": 8493,
      "Ġexempel": 8494,
      "ĠnÃ¸dvendigvis": 8495,
      "ssystemet": 8496,
      "Ġrestaurant": 8497,
      "mas": 8498,
      "Ġbit": 8499,
      "ĠmÃ¸rke": 8500,
      "Ġkonflikt": 8501,
      "Ġdeltok": 8502,
      "Ġdagene": 8503,
      "rikt": 8504,
      "neres": 8505,
      "Ġfinan": 8506,
      "Ġautomati": 8507,
      "ĠâĪ": 8508,
      "Ar": 8509,
      "sjonelt": 8510,
      "Ġmedie": 8511,
      "Ġdetalj": 8512,
      "Ġelementer": 8513,
      "_{": 8514,
      "strer": 8515,
      "ĠAntall": 8516,
      "Ġbir": 8517,
      "sione": 8518,
      "ĠĠĠĠĠĠĠĠĠĠĠĠĠĠĠĠĠĠĠĠĠĠĠĠĠĠĠĠĠĠĠĠĠĠĠĠĠĠĠĠĠĠĠĠĠĠĠĠ": 8519,
      "ĠSjÃ¸lv": 8520,
      "sby": 8521,
      "SP": 8522,
      "melen": 8523,
      "middag": 8524,
      "Ġanner": 8525,
      "Ġverdier": 8526,
      "Ġbefolkningen": 8527,
      "Ġvariere": 8528,
      "ĠNum": 8529,
      "hov": 8530,
      "ĠgrÃ¸nt": 8531,
      "Ġbaby": 8532,
      "ĠJack": 8533,
      "ĠFÃ¸rde": 8534,
      "Â®": 8535,
      "ĠVin": 8536,
      "Ġpress": 8537,
      "Ġhurtigt": 8538,
      "âĢ¦âĢ¦": 8539,
      "cond": 8540,
      "Ġresults": 8541,
      "Ġpublisert": 8542,
      "ĠVide": 8543,
      "ĠhÃ¡": 8544,
      "nformasjon": 8545,
      "gast": 8546,
      "urdag": 8547,
      "Ġrettet": 8548,
      "Ġsaa": 8549,
      "ĠsjÃ¡lv": 8550,
      "ogni": 8551,
      "ĠÃ¸d": 8552,
      "ENT": 8553,
      "Ġsynlig": 8554,
      "seringen": 8555,
      "jelder": 8556,
      "ĠSÃ¸knad": 8557,
      "ĠOfte": 8558,
      "ily": 8559,
      "Ġthrough": 8560,
      "ĠkjÃ¸rer": 8561,
      "Ġblack": 8562,
      "ĠNOR": 8563,
      "Ġmerket": 8564,
      "draget": 8565,
      "Ġfylle": 8566,
      "Ġskru": 8567,
      "]:Ċ": 8568,
      "ĠhÃ¥l": 8569,
      ".âĢĿĊ": 8570,
      "ĠStorbritan": 8571,
      "Ġsvo": 8572,
      "Ġbruges": 8573,
      "vika": 8574,
      "ltra": 8575,
      "Ġclo": 8576,
      "ĠBegge": 8577,
      "Ġlan": 8578,
      "Ġinfrastruktur": 8579,
      "Ġoppstart": 8580,
      "ĠJÃ³": 8581,
      "ĠWorld": 8582,
      "rettet": 8583,
      "ĠMarie": 8584,
      "lÃ¤gg": 8585,
      "spa": 8586,
      "Ġcompu": 8587,
      "Ġbeslu": 8588,
      "chen": 8589,
      "rem": 8590,
      "mulig": 8591,
      "Ġlurer": 8592,
      "Ġhemme": 8593,
      "spiller": 8594,
      "Ġutgifter": 8595,
      ",\"": 8596,
      "Ġbely": 8597,
      "Ġhytte": 8598,
      "ĠFast": 8599,
      "Ġskoler": 8600,
      "Ġsite": 8601,
      "Ġoriginal": 8602,
      "Ġdans": 8603,
      "Ġhunden": 8604,
      ".ex": 8605,
      "famil": 8606,
      "frika": 8607,
      "nker": 8608,
      "Ġjack": 8609,
      "ĠÃĵ": 8610,
      "Ġkomment": 8611,
      "skende": 8612,
      "elden": 8613,
      "ĠhÃ¸ring": 8614,
      "ĠNorway": 8615,
      "Ġtvi": 8616,
      "heiter": 8617,
      "Ġforsvi": 8618,
      "ĠPetter": 8619,
      "Ġsee": 8620,
      "Ġavtal": 8621,
      "cations": 8622,
      "ub": 8623,
      "Ġparalle": 8624,
      "ĠsÃ¸vn": 8625,
      "Ġskifte": 8626,
      "manns": 8627,
      "agra": 8628,
      "viron": 8629,
      "prosjekt": 8630,
      "naÃ°ar": 8631,
      "rect": 8632,
      "ĠsÃ¸rger": 8633,
      "pedia": 8634,
      "Ġmilliarder": 8635,
      "Ġbatteri": 8636,
      "Ġskaffe": 8637,
      "Ġbeskjed": 8638,
      "ĠDra": 8639,
      "ftelse": 8640,
      "Ġorganisasjonen": 8641,
      "ĠnÃ¸yaktig": 8642,
      "ĠAlterna": 8643,
      "sevne": 8644,
      "Ġepis": 8645,
      "ollen": 8646,
      "Ġpap": 8647,
      "Ġhjert": 8648,
      "-Norge": 8649,
      "ndringer": 8650,
      "VER": 8651,
      "Ġrike": 8652,
      "ĠVÃ¤": 8653,
      "klasse": 8654,
      "ĠfortÃ¦l": 8655,
      "ĠEv": 8656,
      "medlem": 8657,
      "ĠDri": 8658,
      "Ġarbeidsta": 8659,
      "ĠOd": 8660,
      "Ġgjenopp": 8661,
      "versitets": 8662,
      "Ã°ina": 8663,
      "Ġmaten": 8664,
      "Ġbec": 8665,
      "cken": 8666,
      "Ġvidt": 8667,
      "sÃ¸lv": 8668,
      "ĠEnke": 8669,
      "FT": 8670,
      "Ġsong": 8671,
      "ĠPy": 8672,
      "ica": 8673,
      "ĠgjennomfÃ¸res": 8674,
      "ationer": 8675,
      "spesi": 8676,
      "Ġfjellet": 8677,
      "Ġsant": 8678,
      "gge": 8679,
      "ĠÃ¥ter": 8680,
      "Åĭ": 8681,
      "ĠsÃ¤ger": 8682,
      "samfu": 8683,
      "litt": 8684,
      "itets": 8685,
      "Ġnordmenn": 8686,
      "Ġstru": 8687,
      "leiing": 8688,
      "ĠutfÃ¸res": 8689,
      "Ġhovedsak": 8690,
      "Ġwell": 8691,
      "Ã¸v": 8692,
      "Ġviktigaste": 8693,
      "stent": 8694,
      "ĠfÃ¤r": 8695,
      "ĠÃ¥pnet": 8696,
      "yllu": 8697,
      "ĠbesÃ¸ke": 8698,
      "ĠsÃ¸knaden": 8699,
      "Pro": 8700,
      "Ġfirma": 8701,
      "cre": 8702,
      "Ġversjon": 8703,
      "Ġkyl": 8704,
      "snittet": 8705,
      "Ġutslipp": 8706,
      "Ġbetyde": 8707,
      "´r": 8708,
      "Ġmyndigheter": 8709,
      "urnar": 8710,
      "Ġskild": 8711,
      "Ġpur": 8712,
      "Ġstarv": 8713,
      "Ġexample": 8714,
      "Ġvegg": 8715,
      "ĠrÃ¡Ã°": 8716,
      "Se": 8717,
      "Ġhenve": 8718,
      "Ġeuropeiske": 8719,
      "vision": 8720,
      "Ġrigtig": 8721,
      "Ġpat": 8722,
      "Ġryggen": 8723,
      "Ġsvak": 8724,
      "Ġhonom": 8725,
      "ĠjÃ¯": 8726,
      "Ġnasjonalt": 8727,
      "messige": 8728,
      "Ġyfir": 8729,
      "stige": 8730,
      "Ġleggja": 8731,
      "Ġofta": 8732,
      "oks": 8733,
      "fÃ¸ringen": 8734,
      "Ġveke": 8735,
      "Ġvedte": 8736,
      "ĠHotell": 8737,
      "ango": 8738,
      "sulent": 8739,
      "ĠWhat": 8740,
      "Be": 8741,
      "mil": 8742,
      "Ġimple": 8743,
      "Ġgaran": 8744,
      ".\"\"": 8745,
      "Ġenig": 8746,
      "Ġudvikling": 8747,
      "vie": 8748,
      "dar": 8749,
      "likter": 8750,
      "ĠDetta": 8751,
      "ĠSpilleautom": 8752,
      "Ġengasjement": 8753,
      "Ġkarakte": 8754,
      "Ġopptak": 8755,
      "Ġfylt": 8756,
      "gon": 8757,
      "mina": 8758,
      "Ġinterne": 8759,
      "miÃ°": 8760,
      "ĠstÃ¸v": 8761,
      "ĠHall": 8762,
      "Ġlove": 8763,
      "Ġopplevd": 8764,
      "kÃ¤": 8765,
      "Ġboth": 8766,
      "vurdering": 8767,
      "sammen": 8768,
      "Ġyder": 8769,
      "oma": 8770,
      "ĠAb": 8771,
      "ĠService": 8772,
      "ĠJens": 8773,
      "vinn": 8774,
      "drift": 8775,
      "Ġcap": 8776,
      "Ġledere": 8777,
      "rende": 8778,
      "ngende": 8779,
      "ennelse": 8780,
      "Ġgrunnlaget": 8781,
      "Ġmal": 8782,
      "??": 8783,
      "PI": 8784,
      "Ġannerledes": 8785,
      "ĠLind": 8786,
      "Ġadresse": 8787,
      "mÃ¸": 8788,
      "ĠNes": 8789,
      "Ġmanglende": 8790,
      "Ġtenester": 8791,
      "Ġeffekten": 8792,
      "neren": 8793,
      "meret": 8794,
      "cere": 8795,
      "ĠÃ¥rlig": 8796,
      "ĠKommentar": 8797,
      "hagen": 8798,
      "Ġdina": 8799,
      "rammen": 8800,
      "Ġflera": 8801,
      "Ġfoto": 8802,
      "Ġkollega": 8803,
      "blad": 8804,
      "bevaring": 8805,
      "Ġforklarer": 8806,
      "Ġhjertet": 8807,
      "Ãį": 8808,
      "Ġfed": 8809,
      "Ġkven": 8810,
      "ĠÃļ": 8811,
      "nifi": 8812,
      "hÃ¦ng": 8813,
      "bÃ¸ker": 8814,
      "ĠTrue": 8815,
      "Ã¸rrelse": 8816,
      "legt": 8817,
      "}{": 8818,
      "Ġavtalen": 8819,
      "Ġgenerell": 8820,
      "Ġdeltar": 8821,
      "Ġdju": 8822,
      "elig": 8823,
      "ĠsmÃ¸r": 8824,
      "tÃŃ": 8825,
      "Ġendringar": 8826,
      "Ã¡n": 8827,
      "yren": 8828,
      "ĠInstitu": 8829,
      "ĠStep": 8830,
      "ĠSist": 8831,
      "idde": 8832,
      "Ġkald": 8833,
      "yte": 8834,
      "Ġverksam": 8835,
      "Ġsosialt": 8836,
      "Ġlagre": 8837,
      "Ġkritisk": 8838,
      "Ġfig": 8839,
      "Ġklem": 8840,
      "asm": 8841,
      "lings": 8842,
      "Ġfyrst": 8843,
      "vete": 8844,
      "Ġinitiativ": 8845,
      "Ã¸gd": 8846,
      "Ġkravet": 8847,
      "ĠOch": 8848,
      "Ġprin": 8849,
      "banken": 8850,
      "opplÃ¦ring": 8851,
      "ĠMeld": 8852,
      "ĠPublisert": 8853,
      "-st": 8854,
      "allar": 8855,
      "utan": 8856,
      "Ġivareta": 8857,
      "ffen": 8858,
      "ĠEksemp": 8859,
      "songen": 8860,
      "lereie": 8861,
      "ĠNasjonal": 8862,
      "Ġavgift": 8863,
      "igare": 8864,
      "kul": 8865,
      "Ġansikt": 8866,
      "ĠfrÃŃ": 8867,
      "Ġnettsider": 8868,
      "Ġflyttet": 8869,
      "Ġkryd": 8870,
      "sjekter": 8871,
      "Ġoppmerksomhet": 8872,
      "Ġlevende": 8873,
      "ĠfrÃ¸": 8874,
      "ĠSend": 8875,
      "Ġpoli": 8876,
      "Ġopplevelser": 8877,
      "Ġlykkes": 8878,
      "ĠAny": 8879,
      "Ġmottatt": 8880,
      "SF": 8881,
      "Ġordre": 8882,
      "evne": 8883,
      "Ġovergang": 8884,
      "Ġbakken": 8885,
      "tasje": 8886,
      "ĠDis": 8887,
      "Ġvokser": 8888,
      "ĠJohannes": 8889,
      "ĠMil": 8890,
      "Ġbestemmer": 8891,
      "Ġprodusert": 8892,
      "Ġtilfredsst": 8893,
      "ĠsjÃº": 8894,
      "kkerhet": 8895,
      "ctors": 8896,
      "Ġpotenti": 8897,
      "Ġvald": 8898,
      "Ġsammenlignet": 8899,
      "Ġpremi": 8900,
      "Ġalders": 8901,
      "Ġlegen": 8902,
      "opping": 8903,
      "Ġcookies": 8904,
      "ĠHele": 8905,
      "ensning": 8906,
      "Ġkvarandre": 8907,
      "Ġprosed": 8908,
      "visa": 8909,
      "Ġblad": 8910,
      "JON": 8911,
      "ĠFir": 8912,
      "RL": 8913,
      "Ġsjukdom": 8914,
      "Ġkos": 8915,
      "atures": 8916,
      "grund": 8917,
      "board": 8918,
      "pend": 8919,
      "Ġkrigen": 8920,
      "ĠhÃ¸gt": 8921,
      "Ġdamer": 8922,
      "onym": 8923,
      "sjÃ¸en": 8924,
      "ĠHelge": 8925,
      "Ġnettsiden": 8926,
      "olan": 8927,
      "lde": 8928,
      "Ġsama": 8929,
      "Ġradio": 8930,
      "sbrev": 8931,
      "ĠFre": 8932,
      "Ġhalvparten": 8933,
      "Ġforur": 8934,
      "lista": 8935,
      "Ġstoffer": 8936,
      "jÃ³Ã°a": 8937,
      "ience": 8938,
      "ĠCal": 8939,
      "Ġtidleg": 8940,
      "ĠMont": 8941,
      "Ġhentet": 8942,
      "Ġalvorlige": 8943,
      "Ġkunden": 8944,
      "Ã°urin": 8945,
      "Ġfeltet": 8946,
      "Ġorder": 8947,
      "ĠIP": 8948,
      "parti": 8949,
      "Ġdollar": 8950,
      "Ã³ttir": 8951,
      "ĠKjÃ¸p": 8952,
      "ĠupplÃ½": 8953,
      "rifi": 8954,
      "Ġrequest": 8955,
      "Ġstov": 8956,
      "nsion": 8957,
      "Ã¤llet": 8958,
      "framt": 8959,
      "ĠmÃ¥nad": 8960,
      "ilder": 8961,
      "Ġtildelt": 8962,
      "Ġnettsted": 8963,
      "ĠmedfÃ¸rer": 8964,
      "vernet": 8965,
      "Ġanta": 8966,
      "Â§": 8967,
      "gga": 8968,
      "ĠnÃ½ggj": 8969,
      "ĠThor": 8970,
      "Ġbordet": 8971,
      "staden": 8972,
      "Ġledig": 8973,
      "ikk": 8974,
      "meric": 8975,
      "Ġinternasjonal": 8976,
      "ĠfÃ³r": 8977,
      "ĠPark": 8978,
      "ĠElekt": 8979,
      "enti": 8980,
      "Ġinviterer": 8981,
      "cture": 8982,
      "ygt": 8983,
      "Ġprogramvare": 8984,
      "ĠÃ¸kte": 8985,
      "raget": 8986,
      "ĠJord": 8987,
      "Ġbehandles": 8988,
      "Ġskogen": 8989,
      "Ġgym": 8990,
      "Ġequation": 8991,
      "Ġdessuten": 8992,
      "ĠTan": 8993,
      "angle": 8994,
      "fjell": 8995,
      "ryn": 8996,
      "vast": 8997,
      "Ġsvensk": 8998,
      "Ġprofessor": 8999,
      "Ġdej": 9000,
      "ĠFyr": 9001,
      "Ġutstilling": 9002,
      "Ġjobbar": 9003,
      "gri": 9004,
      "ĠoppstÃ¥": 9005,
      "Ġatmosf": 9006,
      "Ġnat": 9007,
      "yden": 9008,
      "lagd": 9009,
      "ague": 9010,
      "bake": 9011,
      "Ġutvalget": 9012,
      "verktÃ¸y": 9013,
      "Ġulem": 9014,
      "Ġrappor": 9015,
      "perioden": 9016,
      "ĠApple": 9017,
      "Ġindividuelle": 9018,
      "Ġledende": 9019,
      "ĠNB": 9020,
      "ĠDato": 9021,
      "ational": 9022,
      "ferÃ°": 9023,
      "snar": 9024,
      "ĠgÃ¤ller": 9025,
      "sinst": 9026,
      "Ġbringe": 9027,
      "Ġsens": 9028,
      "Ġmani": 9029,
      "ĠGunnar": 9030,
      "))": 9031,
      "Ġstoppe": 9032,
      "Ġgeografi": 9033,
      "setninger": 9034,
      "ĠRek": 9035,
      "bere": 9036,
      "stik": 9037,
      "nis": 9038,
      "Ġcasinoer": 9039,
      "ĠfÃ¸lt": 9040,
      "ĠtilfÃ¦lde": 9041,
      "Ġlisten": 9042,
      "fylt": 9043,
      "ĠInstagram": 9044,
      "Ġblot": 9045,
      "Ġwhile": 9046,
      "ĠFla": 9047,
      "Ġmelder": 9048,
      "Ġgloba": 9049,
      "tinge": 9050,
      "Ġregistrere": 9051,
      "Ġforretnings": 9052,
      "ĠEM": 9053,
      "Ġklubb": 9054,
      "Ġvondt": 9055,
      "ilsynet": 9056,
      "-F": 9057,
      "ĠEllers": 9058,
      "osi": 9059,
      "/d": 9060,
      "Ġevaluering": 9061,
      "Ġhelgen": 9062,
      "Ġfunk": 9063,
      "Ġminner": 9064,
      "Ġtykk": 9065,
      "ĠPsy": 9066,
      "rukturen": 9067,
      "Ġkompen": 9068,
      "ĠIsrael": 9069,
      "Ġright": 9070,
      "kation": 9071,
      "Ġforedrag": 9072,
      ".F": 9073,
      "ildi": 9074,
      "syning": 9075,
      "Ġhender": 9076,
      "Ġtomt": 9077,
      "finansi": 9078,
      "voll": 9079,
      "Ġfaglige": 9080,
      "lek": 9081,
      "radi": 9082,
      "ĠUnited": 9083,
      ".I": 9084,
      "riks": 9085,
      "Ġsamanheng": 9086,
      "adresse": 9087,
      "ĠStati": 9088,
      "ĠhjÃ¡l": 9089,
      "bladet": 9090,
      "ĠslÃ¥tt": 9091,
      "jÃ¶r": 9092,
      "ĠpÃ¥lite": 9093,
      "ĠER": 9094,
      "read": 9095,
      "Ġhere": 9096,
      "Ġtriv": 9097,
      "forbundet": 9098,
      "Ã³t": 9099,
      "ledere": 9100,
      "key": 9101,
      "Ġskriftlig": 9102,
      "Ġmeas": 9103,
      "ĠFiske": 9104,
      "Ġoppdate": 9105,
      "ĠâĻ¥": 9106,
      "Ġdoes": 9107,
      "ĠfÃ¶retag": 9108,
      "oria": 9109,
      "Ġresultatene": 9110,
      "Ġbegynnelsen": 9111,
      "skre": 9112,
      "ĠTabell": 9113,
      "Å³": 9114,
      "entlig": 9115,
      "lok": 9116,
      "shed": 9117,
      "ĠNytt": 9118,
      "posten": 9119,
      "Ġklassisk": 9120,
      "Ġinnsikt": 9121,
      "Ġarbeidsgiver": 9122,
      "elagt": 9123,
      "Ġkarriere": 9124,
      "Ġkreves": 9125,
      "Ġdame": 9126,
      "Ġbrei": 9127,
      "mang": 9128,
      "Ġjorden": 9129,
      "Ġdatingside": 9130,
      "Ġlyse": 9131,
      "ĠspÃ¸rgsmÃ¥l": 9132,
      "Ġstatsb": 9133,
      "Ġoffentlege": 9134,
      "ĠÃ¸l": 9135,
      "endre": 9136,
      "ygging": 9137,
      "Ġsele": 9138,
      "ĠAs": 9139,
      "Ġforhindre": 9140,
      "stighet": 9141,
      "Ġvalget": 9142,
      "Ġmengde": 9143,
      "Ġgl": 9144,
      "sete": 9145,
      "sjef": 9146,
      "Ġmeldt": 9147,
      "siÃ°": 9148,
      "sÃ¤ttning": 9149,
      ")ĊĊĊ": 9150,
      "ykket": 9151,
      "sleder": 9152,
      "Ġkomma": 9153,
      "Ġamb": 9154,
      "formation": 9155,
      "Ġbevegelse": 9156,
      "ĠbestÃ": 9157,
      "ktionen": 9158,
      "ĠbestÃ¥": 9159,
      "Ġspa": 9160,
      "Ġtyske": 9161,
      "vre": 9162,
      "ĠBran": 9163,
      "ĠKunnskap": 9164,
      "Ġeventuell": 9165,
      "ĠIkkje": 9166,
      "nnisk": 9167,
      "ĠrÃ¸de": 9168,
      "Ġage": 9169,
      "Ġflykt": 9170,
      "Ġstede": 9171,
      "Ġdigitalt": 9172,
      "ĠMc": 9173,
      "Ġkale": 9174,
      "vitets": 9175,
      "Ġfjerde": 9176,
      "mma": 9177,
      "Ġuro": 9178,
      "ads": 9179,
      "ĠVÃ¥rt": 9180,
      "sendt": 9181,
      "Ġutvikler": 9182,
      "ĠÃ¥pent": 9183,
      "ĠÃ¸vrig": 9184,
      "Ġsamma": 9185,
      "ĠKart": 9186,
      "ĠnÃ¦rmeste": 9187,
      "fÃ¸dt": 9188,
      "gÃ¦": 9189,
      "Ġsvenska": 9190,
      "ĠÃħlesund": 9191,
      "ĠProf": 9192,
      "eland": 9193,
      "Ã¸dd": 9194,
      "post": 9195,
      "ĠIsland": 9196,
      "meldinger": 9197,
      "effe": 9198,
      "ĠFu": 9199,
      "ekning": 9200,
      "Ġekstremt": 9201,
      "Ġshe": 9202,
      "veit": 9203,
      "ĠCont": 9204,
      "Ġprest": 9205,
      "Ġfortalte": 9206,
      "Ġgrunnen": 9207,
      "Ġsamlede": 9208,
      "ĠLive": 9209,
      "sfÃ¶r": 9210,
      "Ġkjemi": 9211,
      "Ġinntekter": 9212,
      "Ġformat": 9213,
      "Ġomsyn": 9214,
      "ĠFÃ¸lg": 9215,
      "_file": 9216,
      "Ġrolig": 9217,
      "ĠFÃ¸royar": 9218,
      "ĠmÃ¸tt": 9219,
      "Ġlide": 9220,
      "firma": 9221,
      "-fi": 9222,
      "lier": 9223,
      "Ġbus": 9224,
      "obi": 9225,
      "Ġformula": 9226,
      "vÃ¡": 9227,
      "Ġarbete": 9228,
      ".v": 9229,
      "ĠUr": 9230,
      "Ġlogger": 9231,
      "Ġdl": 9232,
      "Ġrevid": 9233,
      "veau": 9234,
      "ĠÃ¾Ãº": 9235,
      "ĠtrÃ¸": 9236,
      "ledningen": 9237,
      "Ġbonu": 9238,
      "Ġprogrammer": 9239,
      "ĠForde": 9240,
      "Ġalternativer": 9241,
      "Ġevery": 9242,
      "nteres": 9243,
      "Ġplutselig": 9244,
      "ĠSvei": 9245,
      "Ġrelation": 9246,
      "Ġsertifi": 9247,
      "Ġnyeste": 9248,
      "Ġdug": 9249,
      "prisen": 9250,
      "Ġbost": 9251,
      "sfrist": 9252,
      "ĠĠĠĠĠĠĠĠĠĠĠĠĠĠĠĠĠĠĠĠĠĠĠĠ": 9253,
      "Ġpen": 9254,
      "Ġtrene": 9255,
      "Ġklasser": 9256,
      "Ġkundene": 9257,
      "Ġsykdommen": 9258,
      "fot": 9259,
      "flu": 9260,
      "Ġsinn": 9261,
      "ĠUten": 9262,
      ".C": 9263,
      "virkninger": 9264,
      "Ġgood": 9265,
      "ĠEiendom": 9266,
      "Ġjobba": 9267,
      "Ġsera": 9268,
      "ĠÃ¸llum": 9269,
      "ĠFrankrike": 9270,
      "face": 9271,
      "Ġdeter": 9272,
      "Ġbekymr": 9273,
      "fÃ¸rsel": 9274,
      "Ġtvang": 9275,
      "ttede": 9276,
      "Ġbeskrivelse": 9277,
      "Ġkreati": 9278,
      "Ġavgren": 9279,
      "Ġloven": 9280,
      "ĠProsjekt": 9281,
      "ĠCent": 9282,
      "anska": 9283,
      "ĠSkriv": 9284,
      "film": 9285,
      "ĠFull": 9286,
      "ĠlÃ¦ngere": 9287,
      "ĠÃ¥b": 9288,
      "ice": 9289,
      "egn": 9290,
      "cus": 9291,
      "klubb": 9292,
      "'t": 9293,
      "svÃ¦r": 9294,
[...]
